#include <stdint.h>
#include <string.h>

#include "load_npu.h"

static uint64_t weight_0[512] = {
   0x4B6ABD33DF615CE6, 0xAE75158E73E283DC, 0x471954C73BE374EA, 0x184BAC9419C12E3C,
   0x1C15CDB9CD62514B, 0x814F987C06D6F095, 0x8567EBD8EE13726B, 0x06D7215ACA0D7EB0,
   0x0383E5D5919027B8, 0xBB71B4A2D8726AA9, 0x7110B3288D77B329, 0x88E22A27794E73A0,
   0xB511D44F830B75B4, 0x3E8884A55CAFD21F, 0x59571F791178B632, 0x21F3A396AB46EF9A,
   0xA1FB1BE6183BC76B, 0x1CA8C627616C0A6E, 0x488ECB58141CA493, 0x40C0AACE6FAC4DDC,
   0xF7C7591CA0485C74, 0x3B21F38FB38B1F10, 0xDCAF98EC4CA0D435, 0x0916DE6D717690C5,
   0xD48E356E804E0551, 0x5EA99CE3D7D9EDF3, 0x454CF0F8DBFB8601, 0x3EBEB3235E329B1E,
   0x7AAC1F552A296E80, 0x3F38CB2E26BD4E60, 0x8A059B812B7422A6, 0xF49BF45FF39B5F98,
   0xD547AAA662458147, 0xF208083A951A0240, 0x8E24FC9D51BDEA5B, 0xFFB231C3FC60B85C,
   0x89F1ECD0EB6B37C8, 0x1C8CE8F0C4CB423A, 0x002F12017A83F081, 0x8DAD36B5E9B9385B,
   0x215E4BF3F8E51FC4, 0x22AF80457B411EE1, 0x09A8070AE699DB55, 0x979DBA6F51812D7E,
   0xE38196FFE547C727, 0x6F4D09D1040BDAA6, 0xA3B4120056F4ABE7, 0xD7D09F5B2C7A878A,
   0x7622926F7A6174F4, 0x68D64A2888B0CF9B, 0x12D9E54CE2C7E49C, 0x4F3958BBAF33CA26,
   0xEDA9AA37FFC82F8B, 0x410CF951D1CEACD3, 0x2231A08BB5FCD1AE, 0x3C26666E4FF24B6C,
   0x1DBEF69A6DC09EC4, 0x657997B8A5178146, 0xB2E4228DEC7A1838, 0x8764DDA935FC1BA2,
   0xC4AD74B4295CF8CE, 0x2A856AB40DF4C711, 0xFFFBDE4238E262AC, 0x04A4837476683FEA,
   0x9515C232AF82B958, 0x864A2D116F07E76E, 0xFB32F198600F9792, 0x508F2E1DF19D9FB5,
   0x9463DBBB694AA28C, 0x81D34B060267D579, 0x203D30A300E3DFB8, 0xB13B70934CDD922C,
   0x5DD55CC3FAB917C0, 0x2633C090F9B0874E, 0x73C589719229890F, 0xF4B5CD224F8E5215,
   0xC2FB78B311F17951, 0xC61D366F34E904AC, 0xD2108A03E612D22D, 0xC3BEE699A0F74B11,
   0x3167AE50CED8366F, 0x3FF46FC25C6C2982, 0x8D8F23E53300C729, 0x4F6604C6B43C74F2,
   0xE3F44BAC62F14434, 0x8B285984E42B0FF9, 0x5A092F43EB595999, 0xB5F2A64E1159D4FD,
   0x92904B971D28EC8F, 0x24F51676712261CF, 0x8649F170713AF981, 0x1575E3FF5E803F5B,
   0x994C16DEB66FD08B, 0x842AAF01E0148DAD, 0x98ADE9728979FC7C, 0x2E5908A21EC56271,
   0xC8B3EA787733DB7C, 0xADEC2D090CC76223, 0x40A8C948ECE817E4, 0x4E0C383F110A0B17,
   0xD301D8B8BD08492F, 0x58531237EFFF9E22, 0x0CD16E45D5E33E82, 0x9265C1823ACCB151,
   0x542CAAABFA0D3FFB, 0xB4401B1D63B6F5D5, 0x0F4A246C1672B94E, 0xA64AA4EAB8488384,
   0x2D9508868656262C, 0x2733F2360CED94D4, 0x0892201829B87A44, 0x9A52E5EB31E50A75,
   0x0000000000000000, 0x0000000000000000, 0x0000000000000000, 0x0000000000000000,
   0x0000000000000000, 0x0000000000000000, 0x0000000000000000, 0x0000000000000000,
   0x0000000000000000, 0x0000000000000000, 0x0000000000000000, 0x0000000000000000,
   0x0000000000000000, 0x0000000000000000, 0x0000000000000000, 0x0000000000000000,
   0xF2A298F9A77056E6, 0x99177456A76FC152, 0xF511D54A8E5E11CA, 0xD5ED6DF45D3D38D7,
   0xE6DDC97E1C22E4BA, 0x5B8B72C7A3355E29, 0x4F79C88A3BCA497D, 0x3DBB16678EDD4963,
   0xB48496DDD9CD7BAB, 0xD3BB9B5B0199818A, 0xEEBD3358DB2FA965, 0x462E6ADB3BF02D55,
   0x3DE5A81049700380, 0x8D6DB903636593E7, 0xAF3AAEFFDE198F79, 0xF147D318AD8E6B73,
   0x1FC684803FD89395, 0x55D7ECE48A887C24, 0x876BE59674004531, 0x6557CBA28A07B25F,
   0xB6572BB9AEBDCF1C, 0xF8E22AF963A4D3BF, 0x77E717DFCA2B3A47, 0xDF5AC6D4AA5523B6,
   0x4A6665D043DF888B, 0x22B3F9315C70226B, 0x30DF10B2537CD0F9, 0xC65D328DD70302B1,
   0x8EABB76B36EB4D3D, 0x3F9DEA20E5D3AF43, 0xD5CA629E273D64FE, 0xE579D388C6FF0A92,
   0x722BC478B4699E2F, 0x074EBEFF8217D6ED, 0xEDF5AB959FBA71E2, 0xF6DFB8806E1FD23D,
   0xC7D5DF6488F683D6, 0x68049C60D8D6165F, 0xBDD36D1222E45900, 0xA59754012EC236FD,
   0x5556E2E04CE0D80F, 0xD29E24FBA615EC48, 0xAF3F2DC50299D03A, 0x8AF0BDDC32A0494F,
   0x9D8C19583CB79F38, 0x6C383816B5053731, 0x6019CF5D0A1CD51E, 0xC288F6E2329E6DA9,
   0x1365298402583E48, 0xB5639898175BB891, 0x2047256CF7E70D58, 0xF324DCAF1763C466,
   0x63B9E936287E1443, 0xC336D1E020AD89EF, 0x0DBC3CDBA0842016, 0xAFD3CDE594FEEF51,
   0x9A2112CD9A677697, 0x944BF84061EFB4F8, 0xE0002C539DD91E3D, 0xEE132F799B25A5FE,
   0x8DDC6D26C997737C, 0x81ADED1DF970D42C, 0x42DE77F630340D02, 0x823B762F4CE21201,
   0x50C6167DF4ABD52B, 0x905EFEA35C0B41DB, 0x18A9690431C01AC1, 0x122F59601B0501CB,
   0x92A9AF8726E489C0, 0x0FE5131F6D333499, 0xE34B8CAA0D4B3991, 0x59566279D7F26357,
   0x893B09FEBB6ADCB5, 0x3B60D31FEAE4A007, 0xCCB4536FB9870531, 0x8B6BC50356BB459E,
   0xEEDBEE7BB792C5D5, 0x37363EF914B9F0E0, 0xE264C0B8E5D99495, 0xA0F4AFB0FD5986FD,
   0xA53E28B8F23F3C66, 0x3B95EF08C2C40D6A, 0x68763A635BDC1C19, 0xCCCB8CB79F42EBEA,
   0xD675A0D827E6E3F9, 0x90665DF6745C7DAC, 0x84E89626D711E4EF, 0x28DA898CCD1679E6,
   0x70326D5A226BD81F, 0x13D2C6174D8B83D3, 0xE3DF9A312DDA670B, 0x242E09FB1248AE22,
   0x92B9EBD0D6A8EA56, 0xD128E387275DF0D9, 0x58C93F19E229DADC, 0x8575A6D92EFEBB49,
   0x7D113E3013EF4A62, 0xE921CF6F3BCDC4E2, 0xDFBC1351A030C6A3, 0xDF464266C0819370,
   0xE3E322383099181C, 0x3C8246C10B8D31B6, 0x1267479C6875E279, 0x8897DE10CB585EDF,
   0x3497D9C8EC9D8C84, 0x39FE12D4A96ED1DE, 0x0D8E3CAB2679E8D4, 0xF90C2D6C5E7E75D9,
   0x41344CCAF964D3DB, 0x9C9453C684A50764, 0x2595376C2403E9D8, 0x077C14E9D2BB3455,
   0x0000000000000000, 0x0000000000000000, 0x0000000000000000, 0x0000000000000000,
   0x0000000000000000, 0x0000000000000000, 0x0000000000000000, 0x0000000000000000,
   0x0000000000000000, 0x0000000000000000, 0x0000000000000000, 0x0000000000000000,
   0x0000000000000000, 0x0000000000000000, 0x0000000000000000, 0x0000000000000000,
   0xA4126BE719622CE3, 0x2620200235C4BE17, 0x8EF07DB485C58615, 0x385469D778CC8381,
   0x2E97B17B3DF44180, 0xB21ECE0B3D4981CA, 0xB6E16987EBB39D52, 0xBF7B35847303245E,
   0x7C1CA83D2B9FBD65, 0x2E55CCC387FE4369, 0x4DACE120A2884D2F, 0x23E49C0CD06849B8,
   0x6E5612881D4D9627, 0x837805D5E47BB2AB, 0x59A7768FDE3D8B14, 0xDA4F58B3DE54D3C8,
   0x940A831A3CBE81E9, 0x1AD0B267D5725042, 0xB622369A01073474, 0x79A04AC871223A20,
   0x93400F2D26A263A0, 0x3AE4E287FE62F863, 0xB54D78429F2E9E1D, 0x4F8059D2EA023617,
   0x1D16A32BB96468D6, 0x5A6C1A3B9866BF51, 0x4C2A0AB3860EE98E, 0x04A3B37B529C41EB,
   0xBDDB9FC1A7764E34, 0x2C66DBB6D55865E6, 0xDC6068A5683DD1E8, 0x75F8C52AF5009CAC,
   0x8C680E5F4557044F, 0x54F0E7E14E333379, 0x3570901C47BDDD96, 0x72B3C18019397846,
   0xFDCC462B076BD4B4, 0x7CD3161FF2216A59, 0xBD77D51F0D0AE645, 0x2C9193C3173A7876,
   0x17C442135B3DE782, 0x2DF45B3AD3F28A7B, 0x84BF9912B8E13723, 0x03980742368D65D9,
   0x2874367BBA02C186, 0x51B5F9D9AC49580F, 0x0EA123787BEFE2EF, 0x0717AEBB04C2BF73,
   0xF0950AB2CA5956F2, 0x23A9E0FF476F0546, 0xE766872525498C95, 0x7D1BBE6FD32BC250,
   0x773F9A8F13AD47D3, 0x0726CED7FFDD5065, 0x4259E634063E0175, 0xFF28D9D110380F04,
   0x60FE95233F2BBE1B, 0x7BB17BF1445DBA95, 0xAF38721FBCBA6DEB, 0x83C7603212FF4BA3,
   0x64F35ADE53607A77, 0xA87CCBE1803E93C9, 0x0B1FE2154354CEC2, 0x442059649756B05F,
   0xC2ECE73D238390D2, 0x791D0832EF1F2059, 0x35FBB0753355AAA2, 0x0D051CA6DC871C2F,
   0xB4DB8791640ED606, 0xB3C114B0FDE1E0A6, 0xAA56F0BF579F988F, 0x03D52C89673E148A,
   0x4084779A3EEBB7C0, 0xD443F58FD4E61FF5, 0x83EC570E53859559, 0x5BF3B142635F8DBB,
   0x4B96943497BD76F0, 0xDD08ED2684FE5682, 0xA37430C1070B32AB, 0x84B98E654600E831,
   0x860F10675019BFEB, 0xB364A81D8D32DBA1, 0xCA389E439CD54282, 0x6F4DD705ED9C832F,
   0x15FFC4727BB6751D, 0x198BA1627DFCE322, 0x661C5EC2496C338B, 0x20B8DA79836A09DF,
   0xF5D08F20A065E6A0, 0x0B2D0A324F2B933C, 0x718356E45295ED2A, 0xE2571FC220BD158B,
   0x50018121D7B3AB7D, 0xC8A722E8C23C60F2, 0x9EC08C43FE7CCF06, 0x32DDDD7431E1C3B9,
   0x16D7BE6617141E08, 0x5F6EC69C3D5D7BDA, 0x8B5B4070A40F56FE, 0x36ED520DF0BD942F,
   0x9BD13E0946DA5B91, 0x5E73B7C24D747067, 0xB373DA7DFF2DC04A, 0x79124C53D2FB06FE,
   0x22F188A4048ECD12, 0x5C63C014563C2EDC, 0xCAD955106A0B41A2, 0x6E9D789A113431DF,
   0xECDF50B56F1450EE, 0xD5DE62E7C05C7625, 0x105093217361DFC5, 0xC672FE617EBC17E6,
   0x0000000000000000, 0x0000000000000000, 0x0000000000000000, 0x0000000000000000,
   0x0000000000000000, 0x0000000000000000, 0x0000000000000000, 0x0000000000000000,
   0x0000000000000000, 0x0000000000000000, 0x0000000000000000, 0x0000000000000000,
   0x0000000000000000, 0x0000000000000000, 0x0000000000000000, 0x0000000000000000,
   0x70C47D1D559A756B, 0x80B38901B6DB5BA5, 0x7E81133BAE0C943F, 0x1E93C420AE731994,
   0x02F7FD45781728FB, 0xB25CA58D648B64AC, 0x942EA822061B088F, 0x26F3D36BC8AB27F8,
   0xE7AE2786B1C2BFE7, 0x8141DFDD03291B8F, 0x05EC57837DCF4CCC, 0xE9B5BB2AB505A3AD,
   0xA1D13FD0DE6CE300, 0xA4B40AA9C3EEC5F7, 0xAF1916B5D39754A8, 0xD27B779A7858DBD4,
   0x17841BA0B1FA45F1, 0xE8666DA28D699274, 0x18A8262C7B79DB44, 0xD8066ABA4C9B9D29,
   0x5C593843C4844242, 0x9A7EBCE901760F2F, 0xE3E6C10D310D45DE, 0x51088AD95B9AFEE9,
   0x741F71DE5A8CBA12, 0xA63A19CFBFC69334, 0x4CD5315DEC72CAAD, 0x2AC161E6D79BA9C5,
   0x6F3D254F859ABAD9, 0xEAF380A29AF8EDD6, 0x5668DAC1734C51E9, 0x1DE6CE86A5825CD8,
   0x4D7DBFB3C58B76E2, 0xCB2D0132C0A6C0F4, 0x86DCF036D7DD02FF, 0x6BCEF0A56986E4CD,
   0x4279004A94324D36, 0xBC5550FADE212C37, 0x3AECE27EBD7EB110, 0xDEA789974D1A11A5,
   0xB97B20124FBBF57E, 0x25AA8BDFD9C2AC13, 0xAC23C7B3981F8646, 0x3061CB207046A168,
   0xBD6A8881C24533F0, 0x7D975515AF8AFB00, 0x44652F6E0B77A538, 0x1F66014CA40E6CD1,
   0xEF82DA3C62142760, 0x58997A897DDFCD6C, 0x18295BC0E2702C15, 0x1181CB37DC79C288,
   0x2F11FC2CA0CE5D92, 0x3A977B914B0A636A, 0x55DEA21FF202C123, 0x95C364CDF6226631,
   0x3F86B912A212EE5E, 0x1D25BD2CB0443F74, 0x5C2BADD7A0908BA9, 0xC81D7041645B7E1A,
   0xBBCDC2D1A14CC43A, 0xE8E891ABE360FFFC, 0x8AFF690E0A0798DF, 0x9EDAB56F27565EE5,
   0xCB689629CBA8555C, 0xEBF642994FB2CA76, 0xC11647B14FE317E2, 0x1C0CA9175D78F318,
   0xEE18D48150B289B3, 0x42BEA7304E39F7B1, 0x44FC7BD96C3D0A6A, 0x59B95644D815C9DA,
   0x90AEE9CEFDDD0886, 0x1BB63393BBE20AE7, 0x9FB3A3EB9B2723AE, 0xF18CA17B1A0F3961,
   0xC2806ACBF2F9ACDD, 0x6BA1F1BD7E6EA88C, 0x9EFDBDE234DFC08F, 0x42AF988894F50C1A,
   0x54C49700A45B9D36, 0xB370989A2CAE8B46, 0xF66DCF3848DD8AED, 0xA26B737A41B33D5A,
   0x004D09396E752E12, 0x5BC26B8000C4A6DF, 0x2820A5C40A942377, 0xA93692832F98BF6C,
   0x769015205287FEC0, 0x67458FC926473427, 0xB29FDEABB469C4AA, 0x9141290CC6A2D19C,
   0x2182E56CD9AC16F1, 0x6022811C6F48ACCA, 0x3CAD1D238A889DF7, 0x4D306D94EA7E0258,
   0x9640B9968C2E8ACE, 0xE241A938583DEA29, 0x9D9AE6D3E8BC7D8B, 0xF0678D3590E03257,
   0x0F214095EEFEB66D, 0xC4F24DD3F495D2A0, 0x0BCB8F5CE297F96C, 0x33D4A3DC981AB911,
   0x88A41B9ACB777912, 0x394272DCC930A23C, 0x101EC3096B56C3C3, 0x659963AC7C5D6B9B,
   0xAC7CEA105868DE1D, 0xA3405DE403170685, 0x7BE0D20CC5D92767, 0x9295E0CD1E35CBDC,
   0x0000000000000000, 0x0000000000000000, 0x0000000000000000, 0x0000000000000000,
   0x0000000000000000, 0x0000000000000000, 0x0000000000000000, 0x0000000000000000,
   0x0000000000000000, 0x0000000000000000, 0x0000000000000000, 0x0000000000000000,
   0x0000000000000000, 0x0000000000000000, 0x0000000000000000, 0x0000000000000000
};
static uint64_t bias_0[64] = {
   0x00004B6BFFFF99BC, 0xFFFFE8A6000014B5, 0xFFFFE2C90000505A, 0xFFFFEE1200005759,
   0xFFFFBC7DFFFFF026, 0xFFFFD0AC00002DC2, 0xFFFFD2F1FFFF928C, 0xFFFF8E7DFFFFA4DB,
   0xFFFFF69300006439, 0x000061C7000059DB, 0xFFFFE37EFFFFB33C, 0x000027A600002568,
   0x0000198200004C00, 0xFFFFB95B000027CC, 0xFFFF81F8000070BD, 0x000005FB000004BE,
   0xFFFFDD98FFFFED70, 0xFFFFC3A000000337, 0x00003474000013A5, 0xFFFF883900004085,
   0x000032AC00000E2B, 0xFFFFD8AC00007A9F, 0x0000132E0000073C, 0xFFFFD04F00007494,
   0xFFFFECD4FFFFEB75, 0xFFFFAAFB000070CA, 0x000076A3FFFFD4E4, 0xFFFFF692FFFFE4E2,
   0x00002DB8FFFFB613, 0xFFFF982E00003D91, 0x00004D30FFFFC4E8, 0x0000748E0000160D,
   0x00004E0000004D9E, 0x00002E3500002574, 0xFFFF8D0200001F75, 0x000021D6FFFFCA8F,
   0xFFFF9BCAFFFFDFB8, 0x00000549FFFFB40B, 0xFFFFAB0FFFFFAADF, 0xFFFFE165FFFFD3C7,
   0xFFFFDD9700006BCB, 0x00005174FFFF829B, 0xFFFFA479FFFFF407, 0x00005AA30000355B,
   0x00000E8700007059, 0x00001D3BFFFFCAB9, 0x0000021BFFFFFCB1, 0x00001364FFFFEADB,
   0xFFFF92E300007028, 0x0000179AFFFFCEBF, 0x00005BBE000039F5, 0x000014C800001C90,
   0x000057F4FFFFB3A0, 0x000069CC00005ED3, 0xFFFFFAEF00000ADB, 0xFFFFEB8CFFFFC39C,
   0x00005E220000062D, 0x0000318500004CFC, 0x00005B72FFFF9651, 0xFFFF92C4000040FF,
   0xFFFFA7980000472E, 0xFFFF8009000079C1, 0x0000631DFFFFCB37, 0x00005CFAFFFFDCF1
};
static uint64_t zero_point_0 = 0x000000000000136C;
static uint64_t scaling_factor_0[512] = {
   0x0000000000000004, 0x0000000000000000, 0x0000000000000000, 0x0000000000000000,
   0x0000000000009400, 0x0000000000000000, 0x0000000000000000, 0x0000000000000000,
   0x0000000000320000, 0x0000000000000000, 0x0000000000000000, 0x0000000000000000,
   0x000000002A000000, 0x0000000000000000, 0x0000000000000000, 0x0000000000000000,
   0x0000007600000000, 0x0000000000000000, 0x0000000000000000, 0x0000000000000000,
   0x0000FC0000000000, 0x0000000000000000, 0x0000000000000000, 0x0000000000000000,
   0x00BF000000000000, 0x0000000000000000, 0x0000000000000000, 0x0000000000000000,
   0x0600000000000000, 0x0000000000000000, 0x0000000000000000, 0x0000000000000000,
   0x0000000000000000, 0x00000000000000F7, 0x0000000000000000, 0x0000000000000000,
   0x0000000000000000, 0x0000000000000300, 0x0000000000000000, 0x0000000000000000,
   0x0000000000000000, 0x0000000000480000, 0x0000000000000000, 0x0000000000000000,
   0x0000000000000000, 0x0000000069000000, 0x0000000000000000, 0x0000000000000000,
   0x0000000000000000, 0x0000002000000000, 0x0000000000000000, 0x0000000000000000,
   0x0000000000000000, 0x0000E70000000000, 0x0000000000000000, 0x0000000000000000,
   0x0000000000000000, 0x005F000000000000, 0x0000000000000000, 0x0000000000000000,
   0x0000000000000000, 0x6000000000000000, 0x0000000000000000, 0x0000000000000000,
   0x0000000000000000, 0x0000000000000000, 0x0000000000000075, 0x0000000000000000,
   0x0000000000000000, 0x0000000000000000, 0x000000000000F100, 0x0000000000000000,
   0x0000000000000000, 0x0000000000000000, 0x0000000000100000, 0x0000000000000000,
   0x0000000000000000, 0x0000000000000000, 0x00000000C7000000, 0x0000000000000000,
   0x0000000000000000, 0x0000000000000000, 0x0000004000000000, 0x0000000000000000,
   0x0000000000000000, 0x0000000000000000, 0x00006C0000000000, 0x0000000000000000,
   0x0000000000000000, 0x0000000000000000, 0x0080000000000000, 0x0000000000000000,
   0x0000000000000000, 0x0000000000000000, 0xCF00000000000000, 0x0000000000000000,
   0x0000000000000000, 0x0000000000000000, 0x0000000000000000, 0x0000000000000091,
   0x0000000000000000, 0x0000000000000000, 0x0000000000000000, 0x0000000000008800,
   0x0000000000000000, 0x0000000000000000, 0x0000000000000000, 0x0000000000F90000,
   0x0000000000000000, 0x0000000000000000, 0x0000000000000000, 0x000000007A000000,
   0x0000000000000000, 0x0000000000000000, 0x0000000000000000, 0x000000DF00000000,
   0x0000000000000000, 0x0000000000000000, 0x0000000000000000, 0x0000200000000000,
   0x0000000000000000, 0x0000000000000000, 0x0000000000000000, 0x00BE000000000000,
   0x0000000000000000, 0x0000000000000000, 0x0000000000000000, 0xFC00000000000000,
   0x00000000000000EE, 0x0000000000000000, 0x0000000000000000, 0x0000000000000000,
   0x000000000000B400, 0x0000000000000000, 0x0000000000000000, 0x0000000000000000,
   0x00000000003B0000, 0x0000000000000000, 0x0000000000000000, 0x0000000000000000,
   0x00000000FC000000, 0x0000000000000000, 0x0000000000000000, 0x0000000000000000,
   0x000000B000000000, 0x0000000000000000, 0x0000000000000000, 0x0000000000000000,
   0x0000B80000000000, 0x0000000000000000, 0x0000000000000000, 0x0000000000000000,
   0x0081000000000000, 0x0000000000000000, 0x0000000000000000, 0x0000000000000000,
   0x2600000000000000, 0x0000000000000000, 0x0000000000000000, 0x0000000000000000,
   0x0000000000000000, 0x000000000000000A, 0x0000000000000000, 0x0000000000000000,
   0x0000000000000000, 0x000000000000F700, 0x0000000000000000, 0x0000000000000000,
   0x0000000000000000, 0x0000000000710000, 0x0000000000000000, 0x0000000000000000,
   0x0000000000000000, 0x0000000060000000, 0x0000000000000000, 0x0000000000000000,
   0x0000000000000000, 0x0000005400000000, 0x0000000000000000, 0x0000000000000000,
   0x0000000000000000, 0x0000F30000000000, 0x0000000000000000, 0x0000000000000000,
   0x0000000000000000, 0x0018000000000000, 0x0000000000000000, 0x0000000000000000,
   0x0000000000000000, 0x9800000000000000, 0x0000000000000000, 0x0000000000000000,
   0x0000000000000000, 0x0000000000000000, 0x0000000000000019, 0x0000000000000000,
   0x0000000000000000, 0x0000000000000000, 0x0000000000005D00, 0x0000000000000000,
   0x0000000000000000, 0x0000000000000000, 0x0000000000E40000, 0x0000000000000000,
   0x0000000000000000, 0x0000000000000000, 0x00000000BF000000, 0x0000000000000000,
   0x0000000000000000, 0x0000000000000000, 0x0000003E00000000, 0x0000000000000000,
   0x0000000000000000, 0x0000000000000000, 0x0000100000000000, 0x0000000000000000,
   0x0000000000000000, 0x0000000000000000, 0x0082000000000000, 0x0000000000000000,
   0x0000000000000000, 0x0000000000000000, 0x6100000000000000, 0x0000000000000000,
   0x0000000000000000, 0x0000000000000000, 0x0000000000000000, 0x00000000000000D8,
   0x0000000000000000, 0x0000000000000000, 0x0000000000000000, 0x000000000000F400,
   0x0000000000000000, 0x0000000000000000, 0x0000000000000000, 0x00000000009A0000,
   0x0000000000000000, 0x0000000000000000, 0x0000000000000000, 0x0000000064000000,
   0x0000000000000000, 0x0000000000000000, 0x0000000000000000, 0x0000005500000000,
   0x0000000000000000, 0x0000000000000000, 0x0000000000000000, 0x00004F0000000000,
   0x0000000000000000, 0x0000000000000000, 0x0000000000000000, 0x004C000000000000,
   0x0000000000000000, 0x0000000000000000, 0x0000000000000000, 0xF800000000000000,
   0x000000000000003A, 0x0000000000000000, 0x0000000000000000, 0x0000000000000000,
   0x0000000000001B00, 0x0000000000000000, 0x0000000000000000, 0x0000000000000000,
   0x0000000000440000, 0x0000000000000000, 0x0000000000000000, 0x0000000000000000,
   0x00000000D4000000, 0x0000000000000000, 0x0000000000000000, 0x0000000000000000,
   0x0000001A00000000, 0x0000000000000000, 0x0000000000000000, 0x0000000000000000,
   0x00001B0000000000, 0x0000000000000000, 0x0000000000000000, 0x0000000000000000,
   0x0095000000000000, 0x0000000000000000, 0x0000000000000000, 0x0000000000000000,
   0xD700000000000000, 0x0000000000000000, 0x0000000000000000, 0x0000000000000000,
   0x0000000000000000, 0x00000000000000B0, 0x0000000000000000, 0x0000000000000000,
   0x0000000000000000, 0x0000000000005200, 0x0000000000000000, 0x0000000000000000,
   0x0000000000000000, 0x0000000000AF0000, 0x0000000000000000, 0x0000000000000000,
   0x0000000000000000, 0x0000000091000000, 0x0000000000000000, 0x0000000000000000,
   0x0000000000000000, 0x000000CC00000000, 0x0000000000000000, 0x0000000000000000,
   0x0000000000000000, 0x0000B50000000000, 0x0000000000000000, 0x0000000000000000,
   0x0000000000000000, 0x009C000000000000, 0x0000000000000000, 0x0000000000000000,
   0x0000000000000000, 0xD600000000000000, 0x0000000000000000, 0x0000000000000000,
   0x0000000000000000, 0x0000000000000000, 0x00000000000000A0, 0x0000000000000000,
   0x0000000000000000, 0x0000000000000000, 0x0000000000004F00, 0x0000000000000000,
   0x0000000000000000, 0x0000000000000000, 0x0000000000420000, 0x0000000000000000,
   0x0000000000000000, 0x0000000000000000, 0x0000000010000000, 0x0000000000000000,
   0x0000000000000000, 0x0000000000000000, 0x0000006100000000, 0x0000000000000000,
   0x0000000000000000, 0x0000000000000000, 0x0000460000000000, 0x0000000000000000,
   0x0000000000000000, 0x0000000000000000, 0x00FC000000000000, 0x0000000000000000,
   0x0000000000000000, 0x0000000000000000, 0x7700000000000000, 0x0000000000000000,
   0x0000000000000000, 0x0000000000000000, 0x0000000000000000, 0x0000000000000068,
   0x0000000000000000, 0x0000000000000000, 0x0000000000000000, 0x0000000000002800,
   0x0000000000000000, 0x0000000000000000, 0x0000000000000000, 0x00000000006D0000,
   0x0000000000000000, 0x0000000000000000, 0x0000000000000000, 0x0000000009000000,
   0x0000000000000000, 0x0000000000000000, 0x0000000000000000, 0x0000006200000000,
   0x0000000000000000, 0x0000000000000000, 0x0000000000000000, 0x00009C0000000000,
   0x0000000000000000, 0x0000000000000000, 0x0000000000000000, 0x0031000000000000,
   0x0000000000000000, 0x0000000000000000, 0x0000000000000000, 0x6A00000000000000,
   0x00000000000000FE, 0x0000000000000000, 0x0000000000000000, 0x0000000000000000,
   0x0000000000002100, 0x0000000000000000, 0x0000000000000000, 0x0000000000000000,
   0x0000000000440000, 0x0000000000000000, 0x0000000000000000, 0x0000000000000000,
   0x0000000022000000, 0x0000000000000000, 0x0000000000000000, 0x0000000000000000,
   0x0000008000000000, 0x0000000000000000, 0x0000000000000000, 0x0000000000000000,
   0x0000010000000000, 0x0000000000000000, 0x0000000000000000, 0x0000000000000000,
   0x00FE000000000000, 0x0000000000000000, 0x0000000000000000, 0x0000000000000000,
   0x4500000000000000, 0x0000000000000000, 0x0000000000000000, 0x0000000000000000,
   0x0000000000000000, 0x0000000000000094, 0x0000000000000000, 0x0000000000000000,
   0x0000000000000000, 0x0000000000000100, 0x0000000000000000, 0x0000000000000000,
   0x0000000000000000, 0x0000000000800000, 0x0000000000000000, 0x0000000000000000,
   0x0000000000000000, 0x0000000003000000, 0x0000000000000000, 0x0000000000000000,
   0x0000000000000000, 0x000000EF00000000, 0x0000000000000000, 0x0000000000000000,
   0x0000000000000000, 0x00009F0000000000, 0x0000000000000000, 0x0000000000000000,
   0x0000000000000000, 0x006E000000000000, 0x0000000000000000, 0x0000000000000000,
   0x0000000000000000, 0x0E00000000000000, 0x0000000000000000, 0x0000000000000000,
   0x0000000000000000, 0x0000000000000000, 0x0000000000000036, 0x0000000000000000,
   0x0000000000000000, 0x0000000000000000, 0x000000000000BB00, 0x0000000000000000,
   0x0000000000000000, 0x0000000000000000, 0x00000000004A0000, 0x0000000000000000,
   0x0000000000000000, 0x0000000000000000, 0x0000000013000000, 0x0000000000000000,
   0x0000000000000000, 0x0000000000000000, 0x0000000500000000, 0x0000000000000000,
   0x0000000000000000, 0x0000000000000000, 0x0000720000000000, 0x0000000000000000,
   0x0000000000000000, 0x0000000000000000, 0x005E000000000000, 0x0000000000000000,
   0x0000000000000000, 0x0000000000000000, 0xDD00000000000000, 0x0000000000000000,
   0x0000000000000000, 0x0000000000000000, 0x0000000000000000, 0x00000000000000DB,
   0x0000000000000000, 0x0000000000000000, 0x0000000000000000, 0x0000000000003100,
   0x0000000000000000, 0x0000000000000000, 0x0000000000000000, 0x0000000000140000,
   0x0000000000000000, 0x0000000000000000, 0x0000000000000000, 0x00000000B1000000,
   0x0000000000000000, 0x0000000000000000, 0x0000000000000000, 0x000000D000000000,
   0x0000000000000000, 0x0000000000000000, 0x0000000000000000, 0x0000470000000000,
   0x0000000000000000, 0x0000000000000000, 0x0000000000000000, 0x001A000000000000,
   0x0000000000000000, 0x0000000000000000, 0x0000000000000000, 0xD000000000000000
};
static uint64_t weight_1[2048] = {
   0x046DFFDE084A6A44, 0xBB82A317E53F7AA6, 0xDC960EB045346945, 0x8EB4445CDB64154C,
   0x40792B6CB819852D, 0x713505B26221FF07, 0x4382453628F5F968, 0xFDB105A9EFFA5454,
   0x1A618339B27B1E84, 0x2B25B1D9409BA57A, 0x7B9FD1178458E11B, 0x88E5CEE4EA9B9D22,
   0x7457D3C29CCD7B44, 0x3D10C4F5096B5790, 0x6D9F857A63EAA18B, 0x709541FE9CB8B41E,
   0x66021AF9D50C425F, 0x9D421F2A6590DC03, 0x98F0BCAC9DA73179, 0xCEACB2B1B95AF91A,
   0xACD8AE4C26A87897, 0x922855203E94F8FB, 0x7B74B7946EA86E30, 0xAF30EA5F2259DD02,
   0x751A193FDAC1EC38, 0x52BA3A89E4928D8F, 0x9373F2C01F35B7A5, 0x6A9482361E9486A2,
   0x8B40FDD3565D5996, 0x3492989E283BAB09, 0x4A8E8C63791810BB, 0xD6989817752C53D7,
   0x0D6D3A129E06611B, 0x0DA9BADBA9A737BE, 0x1137457C0CC3ECFF, 0x86EDF81B948E64D4,
   0x5ECCA3177BFDAAA3, 0xC16508C0859C2E14, 0x5B13F42153E5595D, 0x836A5AF0CA78AFB6,
   0x60B3926253EC69E7, 0xF03CFA3293017240, 0xAE0723180BBE8E10, 0xD9358D88809DE572,
   0xA1C096FE06D34FD3, 0x76E4A30A85BEC1B0, 0xCB90803129C82EF6, 0x474A9D5F4B88421E,
   0x902B15383A0DBF3D, 0x0297BF8CCF6EBB13, 0x489FC74891D5DC57, 0x1623E853736F8AA3,
   0xF2AE3266D01B9FE0, 0xA799251F459EFCF6, 0xE3D4960AAF97E0CD, 0x32C80EF0D112BE3F,
   0x3D961C606D56EE4B, 0x106773FE5495A01E, 0x56A4663D50E15D08, 0x610123123A831A64,
   0xA0239857F47D77EC, 0xE5341E371A1C7B33, 0x4C9B0C1C0015788E, 0xA6E07D840AB4CE07,
   0xF6C683AEECF05896, 0x7201A9ADC93541D9, 0xA7C2890B1DEDE1EA, 0x1693A80C69EFA859,
   0xB2EC135375912457, 0x4D3C071C9C934BD0, 0xA86FB22DA79A2F6D, 0x8A6C728E5557A78D,
   0xB84D074D33B42060, 0x1981AF10F4492C19, 0xA2D5E0B3281A0DFE, 0x73E56EE2BE9DC01F,
   0x206AB3D7D7882CCD, 0x9CDC455830CF3C34, 0x6A1421F0BE474E11, 0x19215C9215C78F73,
   0x0337B53CDFFAEDC2, 0xEDBD656662524C3E, 0x8A1DB404889FD9F1, 0xEDB0B050699CF75E,
   0xB0B65C1D7B1CD518, 0x3E0272B41FE693D4, 0x1389DF11B39F4054, 0x3D52C5CF0549C535,
   0x478C644C47CC6ED6, 0xB01CB2AD359AC211, 0x05CEDB279ADEE063, 0x07B587BC790B6E0E,
   0x9E6CD4B5B888163C, 0xEECEEF864A501259, 0xDE2312AEF20DFC9F, 0x16459C15C2B6A360,
   0xB8B157E2CBE29B2B, 0x79FB6D79724D5573, 0x471EC5EB43FB2BD5, 0x9DBE32D0A35EF597,
   0xA15C5A197C814883, 0x660B689C06132139, 0x30736AE1AB73ACEC, 0x2E65A3A4C5356E56,
   0x3BF0F25A5F37C205, 0xC0AF62E118709027, 0x2292366C193BF98B, 0xFE083BB42ABF5778,
   0xEF6B688AC96755A7, 0xF06ADF9A23DB8DDD, 0xA63836E03A3893E4, 0x621CC3FA67CC90AB,
   0x00191F123848D511, 0x8574F9E71D4145DA, 0xBA48D8A908C89BCA, 0x1490D97E09A793BC,
   0x0B3C76CC9BB06A55, 0x41C94ABED490A386, 0xEFB630480EB873C2, 0x5FAE05F37570F2AD,
   0x60AE2BFF3699712D, 0x13898BCEED9F8A97, 0x92461618F48F3420, 0xBAAF165521106C5D,
   0xB34D69053EC53AD1, 0xF9D590258182E654, 0x25A41E26F1DE8D89, 0x615B62DDDC4C1718,
   0x29B529EDC3616C62, 0x23BBFD60EDA4EB1D, 0xBFA1B6EA612D41BB, 0x3E4C29F6C1626286,
   0x7B6C646EC50DC66B, 0x442D1189E576A9F8, 0xEA72431897F91B1D, 0xEB5E8DE6D69CDF7E,
   0x2D7DDDD7E4C15FF8, 0xB75FFC0B9F5BA343, 0x73B027797457283A, 0x49CD68BC4CC987A4,
   0x03BF0D6C54247C72, 0xBB8DADC99E4E05ED, 0xADB070618C841CEA, 0xB8F14859E2D343B8,
   0xE082A7E538578F5C, 0x9E62505AF01F653E, 0x538CB9F46F65F620, 0x03FCB9CC9CF71FF8,
   0x650A0D847D846EFC, 0xBC6196C4433A3CB6, 0x1CFBE810E357C889, 0x90A5DFE8034EC02D,
   0xACA7D98A86B712C1, 0x98A72D12F7E12900, 0xE74C10534FDA0BB5, 0x05A0C4DB766C5DCF,
   0x42AC61003E6A6132, 0x8A785FB1A3B97698, 0x549E87FC3F72F7A9, 0xB12953E83A96618A,
   0x9BE1C202FC5E9D27, 0x113F22CEB23BE0EF, 0x79EC0ABCFBD782D2, 0x836F472372225114,
   0xBA8B35CA4490AA17, 0x791091BD631545DF, 0xA3F515899F0935E4, 0x6095D80B4A40F9BC,
   0xE94A45B9EB32511B, 0xF7562E6CF2B9C024, 0xAD61F2A62E9980C3, 0xB261C68CE52DA830,
   0x83ED37A62B3A6B76, 0xB4035CEE2DFEDB88, 0x5619AE711050943B, 0xFB73E4EBF3BF4F68,
   0x91CE9AF9A4C84FF8, 0x44D4BB775B06C70B, 0xA54358AFFE192DA8, 0xD60EDC5EDE9610B4,
   0xF8EFFDA08CAD9019, 0xDE47D32F01B46B1B, 0x74A288EEA80663BF, 0xB93C2FB3D516250E,
   0xAC28B0988ACA2AE6, 0xA0414E2258316AD5, 0xE57360477B5CB07B, 0x0768E64D284724D0,
   0xA008449860040840, 0x4C616D366896FEEB, 0x20959FC71DD9422F, 0x38F35393DACC88FF,
   0x7DE61D594CC86F2B, 0xE51F1C69685E8DCD, 0x7DF1CC0002A80A12, 0x55876FE9E24B3504,
   0x334AF0C8108D3BC9, 0xBB75390EBB519465, 0xA8D617619C8B8FF3, 0x6B0C26F92E8BBFC2,
   0x0C8BE80A5F61B78F, 0xFB3E02FEC7E4BA79, 0x95B649945E6B1B26, 0xA3F0A2E7BCA272B3,
   0x7546300B953EB18A, 0xA492DF0315BB325D, 0xC99923160A7EE814, 0x2AFCF48706E479F0,
   0xE337C0CE87462773, 0x5D6836DA6FE742E8, 0xADA9AD36D61A93B1, 0x828DBC4F232B216E,
   0xA7609B78ABE778CF, 0x247C22C29588C1E6, 0xCF5184289F64645B, 0x22B540D3BF277E82,
   0x56DB4B1D7DB62A16, 0x2529B8346FDA8072, 0x775BF5AA43C2BFC0, 0x9D259BAA699753DB,
   0xABE5A4077A397E9F, 0xBC81996F45E493BB, 0x57BC808A92EB9C8D, 0x0684A29FC218F623,
   0x945C37F4E9545E14, 0x10992A037E996EC1, 0x38A316FDA58C3105, 0xC1B5A52A371D2BD7,
   0xE03C4031CF6FA1C1, 0x0714F6560E39B629, 0x51692A7152BC597A, 0xFB6D1D2E69D749DF,
   0xBC9F3D9BC92ED913, 0x478F4128E80C5BD9, 0x1A5EC23F591371A8, 0xD1EF42BE8CD71F45,
   0xD1B33D964CBD0368, 0x5EF0C5ECEF02E3D2, 0xE0AC8E0051DD15CA, 0xB5CB1F7D9E4685D7,
   0xEDAB9FAB471AFB1B, 0xC924FF5B4D2B8F7E, 0x2D42E4E3411E166B, 0x82009DAF88F6270B,
   0x713FB3BFAD509F55, 0xFA37AAE9EB375669, 0x6C05EF192A741DB3, 0x165208E094842A63,
   0x9A2B0BE96DC86DEE, 0x6E6D7A261CCE2A0E, 0xA208C2B41B4D139A, 0x0F143776070A86F9,
   0xA9AFEBA13C11BBDF, 0xA36A715337C12E99, 0x43EC2D54D37602E0, 0x8696C8AFF5FB4925,
   0x6AC76768FA295781, 0x524F459B981766E7, 0x0C190EFF44B0DAF9, 0x05A4C1F173DABC23,
   0x003F50098DBA14B7, 0x8DAD2FAD2E221598, 0xD8BE0ECF718BA486, 0xEA035BBA71E92224,
   0x427366848C594A31, 0x5EF23BD7D12D977D, 0x266E92511649ADA0, 0xEEC4591AEC16C39A,
   0x64AA842BEB933B91, 0x540E9A9167892B4C, 0xBEB8142362901FBB, 0xCC5C65C5E96B870A,
   0xA66EA39639F5390F, 0x6027CC76AF394475, 0x24A99E220C3D5CAC, 0xF0E37841BD8DAE30,
   0xCF6FE73C3757537E, 0xBA21EB444274776D, 0x0FFEF8BEE0C9C00A, 0xDD00142B6BC19D57,
   0x5CF75AD8280B8196, 0x457B48BDB23A786F, 0xB657CA02FDC9400D, 0x20143353C573C2CE,
   0x60426C572C1FAC1D, 0x5EB8761D08D02F69, 0x4ED1A005382F9D4D, 0x4ABFEFCFA4AA4CC2,
   0xFBC0FC30978D1BBB, 0xF9CF1BB3E4EDA322, 0xA06D434A13B56574, 0x3D33AC42B9FC54CF,
   0xEE93011203CD6F3B, 0x4B5CF003561160C8, 0x093E9B8C57BBC79A, 0x4A1F248DB1055978,
   0x2F08BDBA68D2EEAA, 0x7014A4EAF4E2AB30, 0x441B9F9395C8939A, 0xED6DCD23F03D48DE,
   0x205E3E6278FEF34A, 0x27F102F3A596BDE7, 0xDA2FB962B152477C, 0x0607F81ADEA5FA86,
   0xD2506C8CB797F8C0, 0x55146759839AD854, 0x2199396CBD3FE071, 0xB268BE3479525C54,
   0x684F099C62F95CD2, 0x331DB4EE5CE0BAB6, 0x255C8CF71CE47CE5, 0x94E4F36AA9F51ECD,
   0xEBA1FE557276239F, 0xEF3AE2674387284B, 0x4847F3BBDA5565A6, 0x40CEBA9ADB30227C,
   0x5DC604899BAC9083, 0x4DD99402B2C01374, 0xEE2FB9E3B9F0673C, 0x6941EDF6C2A71EDA,
   0x22C45E669EDDD077, 0x446B4E48D06E07CB, 0x1F697318BAD361E7, 0xE1464B41795A09C8,
   0x15992634FCEB038C, 0x3F0139DE6B18181F, 0x4F50A59F05D18F0F, 0x288E7BFB1D526D9F,
   0x638D022DFE7C7D32, 0x25D35BF783C1C8F0, 0xC9B1AF627E8E6F14, 0x5061669F2B64F8F9,
   0xD87C93D06A405062, 0xDB6F782A95C47265, 0x8C8B8DEF9C0AA0DB, 0x81AAB1CD513ADA3F,
   0x9D30DA491CA64DC0, 0xEB5F1297A69880F4, 0x9822637DEE134118, 0x6442585CFF600CA5,
   0x5A1D31B866502B19, 0xC1B0A2E31A1DEFB6, 0xEFDA7AFB283099AC, 0x084826148CE09188,
   0xC2398F44E40006DC, 0x7EEEDEC908039F6D, 0x1403F258A5FCE227, 0xC709385924932433,
   0x8E8224EFF28D0216, 0x3E64901ABE5739B1, 0xDA3914F951CF9A28, 0x99730F3DF4B6B936,
   0x43E349622B1EB538, 0xA89204EB3E3F53BB, 0xBE2CF030612F05B2, 0x95DDA53FF263DF1B,
   0x17610E9ECBC75AAD, 0x3AF6AEE86F06452F, 0xC948FB567DC8CD7D, 0xEF3FE6E2C260CA3F,
   0xCCE2A2C2E1C5298E, 0x3D9319ED7D7DAD5A, 0xFDF2C45FEBBF72B9, 0xB49FBF570875DCE0,
   0x209DEB1CB737BBB9, 0x9A9EB8A226103BA1, 0xB186D340DA9E9EE6, 0x58735828AEB6176C,
   0xA88823C8903B56AB, 0x5AE49463FC51F7AC, 0x8B67F6EA881A6637, 0x1E241FD1908A8AD3,
   0xFF49270FF7EBB689, 0xB81F5AD80DC21933, 0xB9FE16D0243B9795, 0xD17A4358947BB6C9,
   0x762F8A02D5594179, 0xD00B0C89A00F2CCB, 0xBC7B83A617057C72, 0xE1BAB702BC9DE1FE,
   0xEF5C2BAC0FF6D980, 0xFCF54DB132E9E9F7, 0xD53F518E262626B2, 0xD7CAE372CB0B21EC,
   0x54A0D2AA67B4F399, 0x55285DF8CE6039F8, 0xDBA9DF6AF361ACC6, 0x1AC1E8838D5E5EBA,
   0x31E53A49FA52F5DA, 0x129769152AE1E3B4, 0xB2F06A9A44460EFF, 0x77B293F38A766771,
   0x86AA01B9014B93AD, 0x021D8C13CFD197CB, 0x82DC74ABEC5BF099, 0xF1652E819A677981,
   0xBBAD3DDE770A4D38, 0x1C8FD1552FF601D5, 0xE2BE7D8854007715, 0x27F6FCC0FCECEA72,
   0xC3DA04E1876B7D94, 0x7ABA3C79B400623B, 0x31FD5CD6BBAD5BAF, 0x2EA5F3CB6641885B,
   0xF3CE779C69581B36, 0x43E03D96D1E45953, 0xE8E3543895F52099, 0xD8C633EB0C6622BD,
   0xD3BA84C19BB9D721, 0x2F33A327D01E1162, 0x9154801B807AA877, 0xAC4587262E0164AE,
   0x70B43E0D42DE9F73, 0x5F87C14B67D25763, 0x449C52A6BB16DD10, 0x49572FE24E310108,
   0x9CD8AFCD4DE7977E, 0xECACA2D3FA24D57A, 0x8A42A198841B27F0, 0x3DEADBD7EB634127,
   0xC891457B08DDF2F8, 0x5FEC4B2E2215B392, 0x9C52910DF3A85B73, 0x34A44325B76B64F7,
   0x5AAD77876012435B, 0x2A75BFE86014BA81, 0x175DDEEDD4151EFC, 0x64ED6F28D7A456D5,
   0x9DECBF20FD869E2B, 0x9887877C3C519B74, 0x685DCD3C06F69C48, 0x2BD035C388DBF708,
   0x211DDFB27237BA94, 0x17F9F793F17B26A5, 0x335F4E1C496E7178, 0xBC48F003233DB032,
   0xDC22E710803FEE51, 0xF875D38B8AAE9ABC, 0x8B2F22591A24F185, 0xA3581E0768CA919A,
   0x89E612AA55D4C407, 0x9B2713FB588BF113, 0xD63F12D9C86F3BE0, 0x4DF6C1D4F6FDF7A6,
   0x6D3347BB8A2C68D6, 0x0A7EA9BE128BFB05, 0xFEA129C5CCF3DAD3, 0xACC6D44EAD6D6E68,
   0x1D8D97B5D6800960, 0x2EC1720B6C37324E, 0x308FBD825654DF59, 0xD31A12D62E8AE28E,
   0x9C2BA7133EE92597, 0x492D3DD0E825E60F, 0xB2DC26494125FD40, 0x4C177AA7CA63D607,
   0xF18BEC8AEF7D3163, 0x886ACB07492208D1, 0x3DB6FCEA07C0F268, 0x874E1343DFAC951A,
   0x749D497A6EF95C1B, 0xEDEBF2C80C3B179C, 0x079F4CE227E1B96D, 0xC842520AC542E2DD,
   0xF61924A4018C4325, 0x8CD3C0635DE6B78B, 0xD7CAAED80BEC4043, 0x7B9792A70A2C1372,
   0x72C49EF4B9F3C00F, 0x5896F030B23D039A, 0x562531A37BC7ECAA, 0xFE9B1DFCCF1BC478,
   0x6288F966EB5964A1, 0x52D6A49D3BC8FC55, 0x73A0FB74379829DE, 0xD8FCA2D0E09FE4DF,
   0x98A1EC0A2DAA2108, 0xBFB5D3B4438BD5AB, 0x562BA9D655EA95FA, 0xDBAE7B02F0404332,
   0x0A51967BE120D064, 0x32B592B363FDA8E8, 0x9048CA197CE65A79, 0x7B3C8DCCE27EEC59,
   0x2CDAFCE7B5385EE1, 0x0BF5DE8EAE080C86, 0x148939A8755E36CC, 0x0A3E702E75A1F2EE,
   0xE5FD4D1463E0951E, 0x20053E66CAC9A99C, 0x57108D5F3DB486ED, 0x0EF07489164385B4,
   0xC0F38FB907C79B78, 0x9FD0804F1B2C5A1D, 0x73F0236489D0F0EC, 0x0FDFCCE6BA605852,
   0xB0FD216EE9BFA2EA, 0x474F247C8194CC25, 0x1841515EC44BDB54, 0x4E17D5DAAE284D6F,
   0x60266781F3D00CA4, 0x589F046F65B20740, 0x169CFF52E9483B44, 0xA0ACFE4FA6204828,
   0x9203D5A13220A75F, 0x7402EEBC810F88AC, 0x054714FA9957C8D2, 0xCC30D68F5EF3A1E5,
   0xB6E7344FFDA692F7, 0xF56776649AC4A316, 0x66D2CD0A5C85230E, 0xA6F97746B415D0DC,
   0x9249715CAA243963, 0x50D25902FD494150, 0x3CD4BFD2B410E03A, 0x5948F3D65CCDBD37,
   0x27405AA8118BCE4A, 0xA06B0DC944B5507E, 0x6B5D0F192104774D, 0x127A60ECDE5D9621,
   0xCB6932EF7EDBDA0E, 0x75A76167F6713E97, 0xA5F078D9A7C5B339, 0xEE5D60031450250C,
   0x0918FDD4A9904CD8, 0xE370AA22A60E6AB5, 0xF02F4ABDFAAE6F14, 0x0A98EE93EB47F2D7,
   0xE05F948AF6DD12B9, 0xD7D551ABBFD48452, 0x7D1229C7D132DBD8, 0xA4DA95ADD00FBCD8,
   0x1550AF6B3ECBBEA8, 0x2A91D08F224EBCE0, 0xC87BA3C661F49980, 0x2268874EE3B5805E,
   0xADC31665ACC6EE2F, 0x6659EA027DCA6D58, 0x4D857B08B8166E3F, 0x814D919BEF1F6C87,
   0x689D092D5926C3F9, 0x99C0684A87A0C2DA, 0x456411FF1968EC26, 0x0E986396C0E8EEFA,
   0x6D4534BC3A65A06F, 0x2FE9949A8EEA1581, 0x0886C5A7A14645B9, 0x619AEFBE779576DD,
   0x0581DBD7CE5D1160, 0xF0791E80F551AB22, 0x77FD2136DDC2856B, 0x32398F3765AB3FC9,
   0xBF440DB20D1CD118, 0xA496D826A5C96331, 0x0A011087FD144C87, 0xE36E18FD7EA704D0,
   0xB717F9A1EB0E18FB, 0xE7761BA9FEA5F839, 0xEEDD4BD60D22E9EE, 0x1FB09BD024DED9CF,
   0x1D598D40A064644B, 0x65DB9D4C2EF7BBB3, 0x8DD25453BB65A2A9, 0x077884AF38BC24AA,
   0xF2CA181356A36000, 0xCA0460DA798810BB, 0xC63176E4B8AB6E66, 0xA6C74D08A74F41E2,
   0xA654AAA5E8481C49, 0xCF4D84E0401DFD38, 0xBF1C7B64347C2B7C, 0x3EF3C33647D0FD1A,
   0xBA30B8AEFC016C1C, 0x38650BCBE831C9C3, 0x38D4D001451A8E2C, 0x24A2C0DE839F3D1A,
   0x01016B3DA31D9EE7, 0x1C08C358994D2C51, 0x84225EEEC10ABB60, 0x5FC303BB3961E6E7,
   0x80F3EAB51669A23B, 0xE49C7DABAD9FF007, 0xD97C9E0D14BCE4D6, 0x23564286EDAADF0D,
   0xD909124298EA9C78, 0xA56BFB28CA5D8F06, 0x06D82AA1016CC79F, 0x5AD8516C51F7B89F,
   0xF183DAA81BB8D8CA, 0xB0295D1554B6F2BF, 0xD0AD1343460362EC, 0xE8768834D3793D93,
   0x255C89DBD12C1F7E, 0x9C0FF859E19DE032, 0xDC921019ED2756A9, 0x03809052C89116E3,
   0x4D5821245DA7ED65, 0x7D6F60E8224DFB06, 0x1BC0B686FF38D64C, 0x7CE79FA7791D5B7A,
   0xA99FA299F47D2138, 0x9DD4D7BEC008DF4E, 0xEBA59F3866FCCD7D, 0x0D3BAD5B8E6CF71A,
   0xB550D1EB62FA3B24, 0x9E27006406A28134, 0x70DA4451C37BAE69, 0x7BCE8AD701D7131F,
   0x10563C1D5ED36A49, 0x7CC188BAFC48CAF7, 0xF8173E566581DF6D, 0xAE1E125F4C43D0FF,
   0x52145BC58435C0CA, 0x071768FF6A8FFC11, 0x5027E8A99EA46FD4, 0xFF0260A8131615E3,
   0x1243EB09AC65A146, 0x560EAD106A96662C, 0xE7050B54EBB40B19, 0x45DAF23DE295DD5B,
   0xF0E1738545B51064, 0xDAEEE50A50B6F95E, 0x927574BF8A172966, 0x58C4A20FF1156F54,
   0x0458E92C56003AEA, 0xA32A34F680BCFE58, 0x58A919A9C6E730BB, 0xB4A6F52D3098EFD0,
   0x85BD96B2D08BAFE4, 0xE05775CA2ECF0A3A, 0x978742A681D25FF9, 0x4A142312AF5E3BF3,
   0xE45B540EC9D799AE, 0xDDF079F9A4CCD511, 0x302F8DD097C1066A, 0x0AA2F49E5A11CE88,
   0x5DF83B0F080AEBBA, 0x33B4E1FBA65FAC9E, 0xBF7BA4620FC00293, 0x828B27073FF42A32,
   0xF1691D7D0782A15E, 0x6CF276808F107A85, 0xE8EC0CAFFBA78C5F, 0xE63D1FE2CBF59107,
   0x3C52B104054351D3, 0xBDA0FF5D3BF6AAC0, 0x9CC88882805BCE30, 0xDA48040DF7212D2C,
   0x9663232AC2CC2F64, 0xEA661245162BFDFB, 0x618D65377BFA83A6, 0x715975AD62DA5DBE,
   0xAF3AEA7089E7C328, 0x47125982758F2979, 0xD9214F855302B7F7, 0xB58E4E47844CBE84,
   0x6CD809F7A76E3FF4, 0x12C3174A69C8886C, 0xC5E41400070D6599, 0xC58A97EB2EE15CB1,
   0xD47AC2FFB9C781CD, 0x942F39B28F04329A, 0x2311FE7136D98CFD, 0x20A4943FF14508D8,
   0xD057606D65853B61, 0x49CF4CA49C1205F1, 0x88DB2810CC275EBF, 0xFABA593F39E0BE4B,
   0x8A1FA07D1D0981D1, 0xAD34D54AD9EA5168, 0x26A63ED60E1DBA07, 0xE8D1A9A70F1E6820,
   0xA9529BE395C5A062, 0x2D464252391DC809, 0xD4680A10F2C98437, 0xB3617606245FEE27,
   0xACF71E74D1598E53, 0x58518B353F7A939F, 0xDD8D5F9D89B15AB7, 0x422E79B6123F7DFA,
   0x3D6283C30D9CF772, 0xA9DCE2ED9AB75071, 0x2DFD68F30E990C9A, 0x6B8D8EA963C0A65A,
   0x6A50D323F6EF3A5B, 0x150612E5483F8576, 0xBAFD44C6B2773842, 0x5C957A7B657502F1,
   0xD6A287464F8DB497, 0xA5C49A45DBA2CEA7, 0x45CEB158C3362DF4, 0x1218464252F77307,
   0xA9AB5B3BFD59A378, 0x7526497A5590EFBE, 0xF4D3EF5974147C93, 0xD7179B0901C45C40,
   0x5539EA438A8AA4F5, 0xD73F498E32FB8200, 0x10A5DBA6A89A5C34, 0xF89AD01ACBBD7629,
   0x4315DB185E19949D, 0x2841D2F44CE6E51C, 0xDBE67ABBBC25A179, 0x462DB3EB00D911CA,
   0xE63172050FC75E77, 0x8DBD209377DB364E, 0xB5BD480EE4D34DBE, 0xE07A1C3C70EED666,
   0xB5ACFA328698A857, 0xE8F91D21C4725FAD, 0xCEB6D4BAFC12B89E, 0x4DE3F8DD626D7952,
   0xFB18DCB8F6313C2E, 0x58573EEB9CBF3592, 0x7701E0B49D344E87, 0xEEF5CB57A76306C1,
   0xFC16D5E5C0FBE139, 0x5F182AC11BAFAE63, 0x6614E5211984E9CE, 0xA6EB7567854AAB23,
   0x4081782DD9CDDFF3, 0xE9A4AED401F603BA, 0x2F255A387BC4E93C, 0x92A8FE856B6C9132,
   0xC5D14B4682D52716, 0x0BFE23A1006F3719, 0x2D5B1678C6B1ACE5, 0x93199EF4AB0DAEBC,
   0x840CEA89E3CCF8E1, 0xD24A2E3C0457241B, 0x14BC4B296F9764DB, 0xA3E9B0F901E82408,
   0x95A964F343D045B9, 0x2B14BA6F92EE74AE, 0xF2F420D06F1BC496, 0x2C7A32015AA3709A,
   0xB01816A340AFD308, 0x7916FD872CD9FFA0, 0x3FB1B3CE54FFACA1, 0x18873134E575CFA4,
   0x00EF51FFC658F184, 0x34DE991EABBC10BE, 0xD781AE5EF00E0754, 0x3D2FF01293FA675D,
   0x5D4E6C207AA896C8, 0x7ECBD4D8E8AB9E28, 0x401F9B8C5E69322F, 0x97A94E7448CAEAC8,
   0xD826A941460BE323, 0x0ED4904A5481F9E6, 0xCB21D5DCC0D3988E, 0x461C9D6F79DD50EC,
   0x990A58D8D4E1B924, 0xAF731499C75D83EF, 0x45585F754104620B, 0xF46A8BE71BFA2B29,
   0x76EECC7AEAB29E01, 0xAE650F91CF816F23, 0xFB92BFECF4254067, 0x9874E4190E6565D4,
   0x23967140E9CF315C, 0x1137367A1D1CBE55, 0x30E6E0B08137D526, 0x037A8A2ACCC54A2F,
   0x00505467B54ED507, 0xF7DF1ED42B0C5B25, 0xE90648262C8B9D95, 0xFA9C3F7AAE2296B5,
   0x30B1CDD356C34750, 0x5A923BE11A17C6D9, 0x9CBB59660EE35216, 0x0C492B62FC26ECFA,
   0x74DC1FB4481D461B, 0xE0620923D1E68A0B, 0x92EACDC143A348BB, 0xAF197C214B44CCE4,
   0x91AAA9D6D404E539, 0xAFE4266750F99F14, 0xD4536D454A1AECC6, 0x6D3267C350B0A394,
   0x1F66B11742064761, 0xEF6B752E9DA0C226, 0x8709FCBB971FAB08, 0xBF1D82F47430B9D3,
   0xAC804FAB24F1B6B3, 0x3F493DE8530AE909, 0xCB02F8ECB5DA1D98, 0x136B0F52E168B6F3,
   0x23CF45974AB4D305, 0x505B51C14D59151F, 0xD9E6664933714796, 0x3154205DDC939F41,
   0xFB5D16C71A263DE5, 0x400C4371C0C619F2, 0x8311B65F127D5119, 0xDDC522A9E9E18504,
   0x8DCDF333B6C4FC86, 0x0E9437A0C851181E, 0x22E7A93514D211B1, 0xDAACEC9AC1855CDE,
   0x09620028AB02D1C9, 0xDB05E68E4728736A, 0x960CA5F8449853C0, 0x4961DE963CF42A13,
   0xB0AAB7CEC7DC8095, 0x6C011E1DD07D8407, 0xEA1626F314BB1AC0, 0x999EA66B9952DDE3,
   0x9986995EA3F2C370, 0x610F31B1FCCFAD02, 0x22E08F72DA7B318D, 0x378302E9FD831EB8,
   0xFBCCEB55EA84E8DB, 0xADC8F9465359068D, 0xE397177C3B4EA664, 0x763D8E044471AAD5,
   0x900A37644DB109D1, 0x8A6A821F7526502C, 0xDF942150FC648023, 0xC48E51709C972B62,
   0x0C744A7AA9487658, 0xE8A2954AF064DF29, 0x909AA6F83F741050, 0x0828208CF749F200,
   0x9B3B632F9F101DAA, 0xE3D7F3DB4FD69190, 0xF95261685C2C0436, 0xF51F9B8E3AC4A6F1,
   0x06A60A7D583C63CB, 0xCF310E78039133D9, 0xCF150671BB145246, 0xE87A9B4829697229,
   0xB4276B312A57F94E, 0x9F93AEB0822BE342, 0x1DF1FDFDC1E247A3, 0x46CEE6CDC23E9BC3,
   0xA04A628AA899F461, 0xD618338E8BB2C289, 0x6D1663279CDD6990, 0xB900E83619B9DD11,
   0x5C023EF6D1A1545D, 0x5835A970619740A6, 0x6BBE4468C2A8138B, 0xC0125E910BC42B2E,
   0x54A1387A9C9B22B3, 0x333959514E2FEF30, 0xB151DAE19A970459, 0x4EB6282EDE77923E,
   0x07A87AF4EEEF8D0C, 0x39F6A821E9A9ADD8, 0xC782E30E0F0E5B5C, 0xEBBFA6D8004F4E7E,
   0x230D614973096775, 0x6981D63AD506AFCB, 0xB94250CAD9599928, 0x8B898AAAB5578761,
   0x8375625D3A974748, 0xDC1917514062B71B, 0x9E65E4BB87A4A3C8, 0xB3B5E9211554293D,
   0x0FF70F07EB033374, 0x2A971AFEAA7D8D04, 0xBE1D2DAD8021FC11, 0xB7124E9342D119F0,
   0x98F0D484F0369FD4, 0xA960EF9B64363CCA, 0x03BE962E0411BCE1, 0x44F0B8FA86F3DF95,
   0xC732D912E6B8083D, 0x7323C416F88D0F73, 0x476173AFB95578B3, 0x4AA009DC3BF6BC10,
   0x9C2753AF24D724F6, 0xE77B144DFA88B0FB, 0x76E23FF5CB3CC9EF, 0x3D29E3FB2359846F,
   0xEEDA54746432A3F8, 0xE285179127BB1D83, 0xEA12E98E1BA3EBC8, 0xCAA5D5C8BDE91D8B,
   0x0F5E43EA688CC879, 0xD80EBE94A3251538, 0xD030C23108CC3843, 0x4518F75AE9BD0F20,
   0x02A59CEEC4C12B74, 0x5939234ED627F77C, 0x57B0715F24B23606, 0x12D618E9B01039FB,
   0x39E7EB989B5CB29D, 0x280A64C8AA398ADB, 0xD54A2C592691D236, 0x900C00303035B42E,
   0x2749F65F6E8F71A1, 0x3B9C2755A503B3DF, 0x09DBA192BA4EF0F7, 0x3F7AE2C2E2F5103E,
   0x6872D65DFCBDA13F, 0xB90FE89A27F304EB, 0x9940AF4F9B7CA8C8, 0x3E0E5753F045221C,
   0xC9AF4D998BB4AA89, 0x179892408705786E, 0x5BDBCE497BC9015F, 0x23416AD5A84A7801,
   0xA7ABBA87EAC663B6, 0x20014E99657B4890, 0x00199D685BA4852B, 0xDB880B5376B337CC,
   0x4E949FD753747B6E, 0x518C3925421D2A7C, 0x8583D2305C2122F9, 0x4684E5C0031BAAFC,
   0xF1F5316B8F2D6551, 0x52F8529CDA82050A, 0xF9BF2B42F37EBB35, 0x1EF50A7C715DF8D0,
   0x9230A867452AA1A4, 0xCAB32E3DDB99B2D9, 0x3395B9B076F1D1F3, 0x311B381DA004CA3F,
   0x5B911848AA49A945, 0xBAA8F0FB27401613, 0x56C8D3477D625880, 0xC7FE23D6921A0E76,
   0x2ABCF3CC8FA0467B, 0xC222A851669A5C4E, 0x68BD6E60261844F2, 0x2B359C7A5F4DD205,
   0x6B8790198674718D, 0xC730065677DB3AE5, 0x5B3CC72FA0205215, 0xCA4E50D235AB8F78,
   0x0AEBB7BC9E480534, 0x9836FB2791FE4A23, 0xBD6C419DC3E82950, 0x83AC69BF8B4E4188,
   0xAFF14CFE7DB076F7, 0x94B7D23620CD947E, 0xBDD0095C0884DC8F, 0x4BE9FBF05611A4BD,
   0x54CCA3505ED9E4A2, 0x61844257900FD161, 0x12DF2CC07430695F, 0x04F7DDAC86EF3487,
   0x03AAC5462DAAC7B6, 0x9A2EFA9BA13629DB, 0xE2EFD515BB730383, 0xFC573F2C49E8F8CB,
   0xC65DCDFBBDA53552, 0x7836DD40F8BAF1E9, 0xD453A8DCF3D13138, 0xFBE78A70F99426EC,
   0x12F14730F0C48E74, 0x03BEB1BDB770C23F, 0xCBA295EAE514FAE9, 0x686E07E9FD8BDCB5,
   0x27E5827080AACA4E, 0x92EB7C6EEBE34E2C, 0xC7E9B82DCB3A58A0, 0x3C68D9B147615B32,
   0x112F44DBD15FA187, 0xC39DCF8F41C13636, 0x20E2C3C35D2AD015, 0x23F44B6AFE4C648E,
   0x0D8217758919C367, 0xB22257B051000DA3, 0x48694DACF5A30D92, 0xA61C511DF89D207A,
   0x15E48BB2FB59E6BD, 0x12BD9FFDA454687E, 0xA4FE0F83B0B04E5A, 0x1B18D759505EB7CF,
   0x4C2B5B09B41BF3BB, 0x54A86A281BCE14CA, 0x4896EED58CBE42E4, 0xBCCAD121C1E799CF,
   0xE94C4986033E1CD6, 0x80C31125D41D3B04, 0x374522238C875BE1, 0x482B6ED7B1552A81,
   0xBACDD7878C25F7BA, 0xABEEC201E5013A7A, 0x4392AC764958CA08, 0xEB5E19E2DBDF83A2,
   0x32DA0563EEECD6F9, 0x2F83911ADAF643F1, 0x1E98485323977B7E, 0x14E39C7B68C9F00B,
   0x532AA5E1CDE536A9, 0x35016CECC2E3451F, 0xADDB9279B1525EB2, 0x016881D48E417D70,
   0xE7CC6C5FD161DCCE, 0x78D3E9A4551F1708, 0x794A622E17114236, 0x24F6A1CB921E631A,
   0x5B0C20E5664ADE59, 0x508E489E849F74C1, 0x932EC684374BD1E3, 0xADF7FF8728C61834,
   0x4A1B92471AE274D1, 0x786BB2B23F026272, 0x71DC3D1972FE898A, 0x3239480D5013480E,
   0xB812BD0933C76421, 0x3FA5CF581EBE8F7D, 0x893AC10CD5C262AA, 0x348C87615BC4F245,
   0x42373B29BEA2C7DC, 0xD0B807D0659DB570, 0x5DAE4B9B5E5D759B, 0xB0927D14EC2282C4,
   0x0ECE2362E9218044, 0x95A84133B5F2A258, 0x2E4CE79A3ABA3E1D, 0x55AD88E6ABEE9696,
   0x932DBB272E0794C1, 0x00A869F69C699610, 0x4BE5DE695712B021, 0x35831E0FBE825DFB,
   0x10B95D89C0571CEF, 0x1D2376BC680C097B, 0x8C7A1E0134B8A2D6, 0x121AFE0694881E0B,
   0x0880A19017EDB4FD, 0x522C74BC30B2C0DE, 0x5F831BAEC24CC6D4, 0x9140BA08D53DB58C,
   0xD910E7CA27B84A34, 0xCA7EA2CE52EF1787, 0xBB1687DECDAEFA64, 0x846441D02C4EEB28,
   0x9425CE481DFB57F3, 0xC7929DE503537B69, 0x8A4CE91FC19276CC, 0x1828D05C435EB206,
   0x4ADE16A07EC27809, 0x33BBCFA0471C36F5, 0xFA974AA66398DE15, 0x1AD70FA30AADF5E6,
   0xF81BC59635B51488, 0x4F7A049E617E800C, 0xA2C28BF575186808, 0x6BECADB452C9D9DB,
   0x67B7E23F0D72F095, 0xFBD633AFBC447C18, 0xDE81AEB5176A4E7C, 0x0E80B7DE57C2FE09,
   0x29DBA5F2091D795E, 0x2C07F208D91A62DA, 0x58343FBE920C8EE5, 0x4616F6C46D9F589A,
   0x20E55509FF50EE15, 0x48B2EE16BBB8A13C, 0xA7AF273E559F870E, 0x00DA6BEE01BDF016,
   0x4FADDDA9A2EA83FC, 0xFF4D3DAF425BCA59, 0x4ECDA9DDC87BBD96, 0x8EBFCE17ACE2B6DE,
   0x3852A37ABD2BACB3, 0xCE376C50416D6B15, 0x070878AA4A0E0883, 0x32FA833C9912D5B5,
   0x476AD2951BCCFBAB, 0xCE201888398208D7, 0x3231DE0563058DC4, 0x8089F4CA6777D6AB,
   0xF9BD5949C6C46D75, 0x806B3E78AF3B5423, 0x71CDE8142731778C, 0xA1F76E5587F49F51,
   0xCADDFABCD6CBD250, 0x671D1922BE80CD2A, 0x5CD00368E96ABD05, 0x10B66CD072C2D8DB,
   0x8E0EE7918D73B40B, 0x4E8F32BA21E8E768, 0x6D87320A78ACA61F, 0x185605EEF820459D,
   0x8815147DA42489A0, 0x1164CAD5B4DD8843, 0x43B0FE89364C67C1, 0x60F336FAFEF51284,
   0x31261A7219B30AF2, 0x0A6F7DA31045A723, 0xC0F567AA37D70399, 0xD8FF08C419D97D9A,
   0x6E1FCD4B174CEA2A, 0x102C11E39AAA1B6B, 0x32D735C36BB3BB6F, 0x6CA86BF74AC27C04,
   0x569F696435AF3239, 0x806B3CCBB856E54B, 0x355E3107BED5870C, 0xF2045212B6CF3A4F,
   0xDA3C4C6121FB98A1, 0xFFF3440E906B9F59, 0x3AB9FF332A16CA9A, 0x7AF35393EB88E823,
   0x13A68E4230F500CD, 0xD5EAA44EF50E2B10, 0xBE9559F95B5CD2E1, 0x75E7B3A63C087AD4,
   0x15F246087ACDCBC6, 0x6B71F48A3C2E364C, 0x997506BEF0410793, 0x14F0F055535B0852,
   0x73CD0637C9743156, 0xF12C87282FBDDC5D, 0xBD31B8866F43C0E8, 0x7E57C2B853AA760D,
   0xF0AF0F5409C96A4E, 0x445573E52D514376, 0x9D70352B87202471, 0x89D30DB4F95954A4,
   0xBABB7EC2E91269D5, 0x71F242E1B3050153, 0x43ACF6179D1156DC, 0x254693C41F510B88,
   0xFC9AEFF1EC5A4A50, 0x03B0EC5085400CF2, 0x3D5FB288C4488A8D, 0x32670F410A280AA7,
   0x91B2E8A1C6A8FB25, 0xE73ED6240D5E1C90, 0xFFD95B652643FC18, 0x38DFB2CB54E975F9,
   0xEC8A0EAD04574AF9, 0xDA17D0018C8576BF, 0x75E817B5AA110B7B, 0xAFB26E403C6F45EA,
   0xD5A0FB57DDB73B09, 0x1EA3C5986679B786, 0x3C130AB3A26E877B, 0x8662A9F93D52C3A3,
   0x300293F0DFA2BF94, 0x04649368ED715130, 0x202B8019D0EB4C26, 0xCD5D773BA5323157,
   0x865642D0ACD04EFA, 0x89F539DE55642826, 0x624523A11B4F31B9, 0xBE987B87944759E4,
   0x9F90083BA4DE8632, 0x25BA2FB1CEABF2CC, 0x17C5719D039FC76C, 0x3BF256EB7823BA78,
   0x0AD036F067FB59D7, 0x3BB1EBE70CDB5639, 0x365E8E120A20A690, 0x9C99704D51EFF7D0,
   0xFD8E626E3EB6DF70, 0xF81CA6916DF7FA4C, 0xD948BF7382ED23AD, 0x44E6F33D8DFC309C,
   0xC908FE1DCC88E1F7, 0xCB5A59C35AD20771, 0xBB4D373D37AE0011, 0x8A461E18164F51A4,
   0xF727208A194D6DD7, 0x1D8807CC67DAF4BD, 0xAA423C187DBBB861, 0x7D3DBAB33ECCDE46,
   0x5678979CAE21B9A0, 0x8862BF4A30B7E182, 0x936D01ACE2042C36, 0x707E32C7F9186674,
   0x33376021C6E8F59A, 0x2AFAC37EDDC2E4A3, 0xFE9CA1A7635BC560, 0xC44263047E08FA87,
   0xA62FB8DD6DBB76CD, 0x239B2E6A8B4C9C86, 0xD34C93FDCF44647C, 0x14F1596832D07D51,
   0x7BAF5E867EBAA8C7, 0x1B8C35D7C628A98F, 0x4AAC56C601EAD501, 0xE634320DFDD8BD9A,
   0x6D8151E6C9E380C9, 0x62CC55863E4D0EE1, 0xE68B0169E75C4132, 0xA741812201A6C2B9,
   0x851BD7046FBE5792, 0x09CE217302BBE4E4, 0xE8A46E19E45DAD73, 0xC1959ABE935C4072,
   0xD24B7888E19C2D91, 0xE27A3F69AE23F2AA, 0xD333A1CDD4622547, 0xE94B429D09FC18AA,
   0xEF0B9C4BF823F606, 0xE2C4CA3115A81C53, 0x86479FB804DBF3CC, 0x57362E95966C0157,
   0x9CB2B9E84A9D80CF, 0xF3432564632FFBD2, 0x6FAC21BA5ECE8E39, 0xCA3C22B60E873C3E,
   0x7A71DC20CF790284, 0xCE172BA119C33F4B, 0xEE969788D32234CB, 0x2E51F96B3C2FBB69,
   0x0AEE69C2C74CAC55, 0x4C7B7EF4BFCFF361, 0xC7A6CA6A50F409CE, 0x91F66F6F94827910,
   0x1F12A64CAD7C156B, 0xCF84333D4EA4FA16, 0xD5FBFB35B5FF37A2, 0x13B559F8DB1EBFF4,
   0xBF7131F5A8F93000, 0x8B6152C9700E4C73, 0xA3F68A0B80E9B3BD, 0x75B02B1EE12BAA60,
   0xE886FC8109FE5018, 0x34D329AB014A9402, 0x83030D11004F6592, 0xEDB91874AD050CAF,
   0xC7073E09922CD6BE, 0x2EF65FB0EE5CAE1F, 0x9236EF8489B44AA9, 0x41B28BADE99F2821,
   0xC79BDDAC176FB0F6, 0xA7401E757536545E, 0xA2833CEAF867393A, 0x6DA113582308973E,
   0x72C65EAF29272E31, 0x391724C5F27D7CF2, 0xFC69102475C82A30, 0x02B56D758BDB71D2,
   0x4575BFCA09BDEF6A, 0xF1FC5E69F7BB986E, 0x49008DF106EEE72F, 0xD40866034B917717,
   0xBA4C89BCED4D0ABC, 0xA802F592502E4262, 0x35AACFABF5C18DF1, 0x6396DC058F6749D4,
   0x14A6F7589B0D7048, 0xC5B7B74EC0E6AB34, 0xBDC5EE1559481BF2, 0x62C7055EC7864E5D,
   0xAEE48B8A24044D15, 0x3A2193A579516930, 0x5A08717C134A34E5, 0x1B147A77928457FA,
   0x1FC3FBB32C2A6970, 0x115C872CE691F63B, 0xB725D478CCA771A9, 0x97237698896000B0,
   0x74435A8747F2CB44, 0x2611D86ED227C79C, 0xAEF743300453AD4B, 0x410C802DAF7BA06B,
   0xC967CC1E11A77ACC, 0x9B6E1B4A3D8B8168, 0x26076EE16066E5C3, 0x43630CE5E7F53DFC,
   0x1410BD080EE5EB12, 0xBBE1E3AF12328AA3, 0x580CEAFADCE3F80B, 0xB01833C520F25D15,
   0x1950D27C5C8610FA, 0x8B9B629218D7DC84, 0x61A6A4D404E1D400, 0xA4065051AFE699BF,
   0x4A271977A3BED45B, 0x8EE1CC10B26DD2A2, 0x94B2F831C38FED2F, 0x55FA2B400C6FB7B3,
   0xD8523B08D9E95EDA, 0x4A0541D1DD9FB36D, 0xDE9F0B0586AEDF4D, 0xC95C822CEB2EDD3D,
   0xF68029D80C730FAB, 0xDCF523D2151A83BB, 0xDA55036205945136, 0xEF081772A45B62DB,
   0x80114FBDDBD82A64, 0xBE2344C3131298F5, 0x278B60A6D2491F35, 0xAB7871EC072536F3,
   0xAC9C7D8E76613818, 0x5F0381A4CBD318FF, 0x6D37A2C6C8C5BF7C, 0x747ED418589186A2,
   0x6931E025B1366495, 0x9EB70218039E2364, 0x48FA07E634C0C8B1, 0x86A7FADD7055E0D2,
   0xE3FFC5B039A1D5D5, 0xFF6A568DE694012B, 0xEECB81E063542B7E, 0x4A6450DC696AE529,
   0x7AF21080D18C8B41, 0xB7270BCD84350FD8, 0x221B537BB2CE072A, 0xDB060FF912AA824B,
   0xF9AB8F1B454374A0, 0xB27EA50140A94B53, 0xF0CA61A848A57348, 0xC14E0D90A7697C35,
   0xFFB82A49C9E1156B, 0x7D7E91D51398A80E, 0x59767CE4118B95BB, 0xB5E07169E49BE073,
   0x223168D001A7DE5B, 0x4DD8197D51B9BE4B, 0x517941179375939C, 0xF18924963E123257,
   0x0B1491F33D079FAB, 0xC343861B1B61FAED, 0xFCCEA21AC2980110, 0x1C2C760E36C3BB08,
   0xB6848F341B72E26F, 0x2721475F7D5210FF, 0x19D8F535FB89B198, 0x59FD8E635201B6B5,
   0x1856A7A706E62298, 0x0E28E450E0DB90BA, 0x0605FB1DFF85E6BB, 0xFB8C5CCEE623B3B8,
   0xBF2274368252717D, 0xA2C076BDEA099101, 0xEBA89914FBB9DE5A, 0x4AD3126584694875,
   0x25E6A90A0CC7923B, 0xFF54D714F4D2923E, 0x36C4995658A749B3, 0x99A6B4F2F4999B70,
   0x0071DDE128D03E01, 0xBB4F927C0130A918, 0x9C93108EAFF08642, 0x89C70424E0C1B298,
   0xA079407C1B2B3C48, 0xA3E8E4F1FAD8D603, 0x2B93CC8CBE24872E, 0x346D78893B4C478A,
   0x12ED6ADA5662B2AF, 0xB0F584E901E939AC, 0x8919DD0C33238499, 0x2D6DDF541D677529,
   0x24566828913A26E8, 0x074161F97537B058, 0x8A3DD03DFAEE70F6, 0x776E61F165D49A7E,
   0xDFC6D61898D22F48, 0xEE1C17BAE0C19167, 0xF0FC58FB0C5253CD, 0x1C691B58E3FE3F79,
   0x41CAED0C22550814, 0xF5656A14B8171B7D, 0x570DB7077AF8BEFD, 0x3AFEDDE73F0901AD,
   0x1601FF0F72FD87E5, 0xAB57B8D0D7A61235, 0x953B18614CD726F4, 0x240A508E2AE95529,
   0x823979E5843D6057, 0x037D67C140612642, 0x6299E33CE7C7A417, 0xBFE648D45FB12675,
   0x4D3E68E85055AA0C, 0xF8B355448D825277, 0x3475C4CD213F62B6, 0x93DEB1DDF842B81D,
   0x53E63294876780FB, 0xB84980526914AD29, 0x7B2D1E1DE8A587F1, 0x703BDB811783AA38,
   0x6C3BC592781E1AA6, 0x2B1253B6F0BB855E, 0x8DBEFF0D2FB0D2F5, 0x5852933A97ED2271,
   0xE15B19A5CA7A9082, 0xA5AE3CD4EA7A4DA6, 0x4EBFB813334A44BF, 0x28D4F56E60037B3B,
   0xD03782D52208B17A, 0xC336EA8634534CAA, 0x7727DD86B1EEF033, 0xA3FEF5546A987D15,
   0x14E6D9A2AB3EC534, 0x42F2FD9422CD8321, 0xE65DA63ADABA668C, 0x4D4B22FF98937167,
   0xC6151306C2A45B89, 0xC60E0736BFBA8022, 0x4901A18D6880CC5B, 0x790E4309BF62C2F7,
   0x969F6CC5D86BFE86, 0xBC1D650E66DBFAFE, 0x3B01421F8516B751, 0x0CDE3C4A296E9E77,
   0xD8CF8661F2F644C7, 0xFF72F073D47855D7, 0x787724270B1B48F1, 0x28AE5A993CD9F9BF,
   0x451C6786E10BA5D2, 0x45B964456D946B73, 0xC0584F2AE1F5D3B0, 0xD4ED3A3BC9FC958E,
   0xBE4BC268728DCD86, 0x3FFFCCAAB049C907, 0x06D67B289FB30C13, 0x935FC4C994C2B479,
   0x180DF108C18674F1, 0x7D989AD6779031BF, 0x47D77ACF02F644B4, 0xE0C8CDE4AB684227,
   0xD4C6446164135DA8, 0xB6CF769CC722F37E, 0xAE2406D3084CC49A, 0x2FB2A21F0EE5DED2,
   0x02E4DD9A7E87AFA9, 0x37FB3B0D7B1F645C, 0xCEEA5284C22F27FF, 0x8983D0ABE2E4A670,
   0xEF765E7A53857961, 0x08A0762778E6BAED, 0xBABF9AA1BCCEFFA9, 0xCCA6982F569FC483,
   0xD64B2E663BD541F8, 0x12E7EB265335EB52, 0x182A54D0E6C948F5, 0x043461C19BBE57DB,
   0x75AC2FEFFDC99626, 0xB5BE15134623FF1E, 0xE99BC43C729990DA, 0x26C60A4EE25AEB57,
   0x2413683E933BE2FF, 0x31335A83D7A3A6C2, 0x03BDD7185D4B0139, 0xCEA857A5B7AC77AE,
   0x0FF98916808CD85A, 0x9CE94EDAABC8653A, 0xF2F2BBF7E347C5E1, 0xF55A8AA5E1A79AAD,
   0x69A8BB3279875EED, 0x4183252953F7CB02, 0x4E8EDE483386D592, 0x841C93535666699B,
   0xF881ADF711B29A20, 0xCD9F38D8C8287BB3, 0x19AD744A5394360D, 0xCC9746629381F3B4,
   0x8860A61DC988492F, 0x15B254A2ED5E698B, 0x7E547EBFC40D838A, 0x5B8E66B14A86F16D,
   0xEEB0FD2E314701D6, 0xD1A3E9CB958B0527, 0xEFC12ECB69A29935, 0x469C7AAEF665982D,
   0x2678ABD57804A2C2, 0x73D68041C3BE356B, 0x1944C421C5050757, 0x3EDCAB36F98F49DA,
   0xB2B3F5271FDDF3E2, 0x1CDC95A2F8C1A00D, 0xC75A5A6CF20DC52F, 0xB47DF7B7F9EA77D3,
   0xD7E5224788C79FD8, 0xB096CB36A4519295, 0x901D7892A8C85993, 0x949DA403D751F57E,
   0xEC364A57742B426B, 0x3C1B1F2D8BC29724, 0x20CFB38C6F2C3399, 0xD952636DACCB76D7,
   0x64DEFAC2D12924E1, 0x6E9E7BFE12971F79, 0x27EBC0A91B182806, 0xF040CDB4D30C3103,
   0x825F2A369BA7011E, 0x4539D6CCD3AB7EC3, 0xF49E5C6A1A23CB69, 0xDC6787AE813D3072,
   0x45173A2B9D96F7F3, 0x9DA5267C15785194, 0xA99458F9079B91C0, 0xC4EA31C7B535E3AC,
   0x3A1F158A7AAF6340, 0x3F7ADF85A77983A6, 0x8584F5195FB8DE3B, 0x1975FB3421C6E387,
   0x2EAD5A92DB355EE2, 0x12390AE85DF0FD4A, 0x6CABF0CF2B73B018, 0x5EA2BF2DD747A599,
   0xF89D2D897B241A99, 0x7611EA876C3775B5, 0x853F5AE3D3993F6C, 0xBBAEB2A877E469EA,
   0xDCD0BAC95470CC96, 0x4EBAFD768C792E1B, 0x6B0710E3359573A6, 0x020E5FE23068EC87,
   0x2DE9C1FED72A2B2D, 0xBCABE694C5AE736B, 0x5428800A77E7A1AB, 0x0BF953C30E4681E6,
   0xD43B966366B309B0, 0x9BA562CA87E5A73F, 0x105AC1BA848A9A85, 0x23357C0AE4F93DE2,
   0x8B8852F379600982, 0x9078B8B6C5712C3E, 0x12727983F2A697FE, 0xAF03CD1219F6F168,
   0x4D647A57345D16F6, 0xD1F43B8E5A7B913B, 0x32F106D2DBE8D7F0, 0x7E1AA4D62E5358C7,
   0xDD6D7836E32E022B, 0xE99EB802463C20E8, 0x4A4F3B69DF766DA7, 0xE95F43B904F18464,
   0xC4A987B3DD5DF1F1, 0x9610F07E21CB992D, 0xECADC6967D6D6754, 0x2AAA068017629DCB,
   0x60532D39A0D3A1FC, 0xE8D43DFFC7434D93, 0xE8B8A11D2F795D83, 0x906685E586C5075E,
   0x8C5B1C3BFAEFBDE5, 0x92293141A5AB19C1, 0xE7A2348C35494559, 0xCB18A8EE2A367837,
   0x92DB1934B4B6715D, 0x982557DDB8EA066F, 0x9E9FF73A5542F565, 0x3663FFA9D0B096F8,
   0x31672B7413F06053, 0xE8A11EBD279F414A, 0x38DEDB300DDB8C81, 0x66A69D929CC7C447,
   0xAF0D1E4C1BD44860, 0xE8CA34BE12C1232D, 0x68E6B60451324E97, 0x7E3FA269BD2567B4,
   0x65139C7393480432, 0x174009A5261B034B, 0x13CD106DB45837F5, 0x574B90FD7BD5C957,
   0x9863032490DE8732, 0xCD6B03AE0F31E7AE, 0xE22198D8FD263732, 0x53C7DF65136C42E9,
   0x752730DDC04AA164, 0x01E659005F74CDA0, 0xD3BF1A303D37ACD4, 0x20DB998A90DCC8D2,
   0xF2A28DFC8932556C, 0x0CF09B1EC57159BC, 0x8188CDDEF19F5642, 0xF33D01F6E82C5708,
   0x2AA89BE01531643C, 0xE084A685A3E249AE, 0xB84590D2F3473810, 0x5698D5B6A1F46657,
   0x77BEA9A0299AD210, 0xE26AE4C8250928E0, 0xCFCA33DC727685D6, 0x083DBF25DA559966,
   0x572164086512EBB6, 0x8DB77B02940AB276, 0x842B0A9E06C6E072, 0x32EC9064E98F44A7,
   0xAB562DD82CC72C35, 0xC5B4FF7604447DFD, 0xF5774EF519AF6299, 0x9236807BC3D25C24,
   0xD7160CF1C184A2E9, 0x882B0C06A60990B9, 0x488CB3241B017DEE, 0x6E012FC09427D205,
   0x94087D2D0D4A3B9A, 0xE5CACBB4FA2170B7, 0x8566A2E1959F62AE, 0x3A95A76DAB4A8091,
   0xF7C8D8161BC4A960, 0x8C29A72E576911E4, 0xEBA5A6F33267C751, 0xFFEE8D363AF2E7F0,
   0x31F906D5B3EAC270, 0x3CDF473B85C43220, 0x27D53F3117FAA9D5, 0xC5BC8EAA2E5D73A3,
   0xD7122BE041AF47C9, 0x52BD6BA59AD834F5, 0x9CD2DC1E09D6570C, 0x58319863E07AF3AE,
   0xAEFDB08A53299613, 0x6810B7C975056C7D, 0x15D9AAA5D72F2BE7, 0xE61EB247BAB32C05,
   0x358D17C785644FA4, 0xA78C4CE9264080FE, 0x130722DB45F0EB70, 0x081BD12DF9DF5A9E,
   0x0E17DD5327BAB619, 0x2EE6A58A141B1E77, 0xB48E845B48E19AAD, 0x49D54FFC083E07A5,
   0x35A48FB432692972, 0x98ADA73217BF0B44, 0x33FF158746135F30, 0x74EBBE3245AADF94,
   0xD1C6000F5AB0AFB8, 0x865F18EBA780CC32, 0x235D91AB6C0CCFD8, 0x89323F7DE856E536,
   0xAC5DE618E8F1FBA8, 0xE3320FC41625FFBC, 0x7E03A73D53BE436E, 0x4D87AE1257009ADC,
   0xB4F756BBA73757C0, 0xE8767E2C81A93AB2, 0xD5A1C7858B3F7C01, 0x5AFA789A265CB518,
   0x7183B6CB8B3A5EE8, 0xC0375165F6C32FD2, 0x9C91C983D4988696, 0xE4BE209563638622,
   0xDE03A41F48B98454, 0x469A84E84FB325D8, 0xDC5D33080DD2765D, 0x5CEE74B4EF257C61,
   0xE78D059822AB206C, 0xB750DC48C2846DE6, 0x25A2C595A32C5675, 0xEB74496D553D7C6A,
   0x9BC83EF4B45886D6, 0xA358C1D582501FE9, 0xC300489AA38A6F54, 0xC4B9BD9E66E71FB8,
   0x97A0D23495B2CBB2, 0x45DFD5F21AE8ADA3, 0x91F8509CBE4FB399, 0x56CA4F8AE3286014,
   0xBD6A57EEFC7318D7, 0x5B3D582EAFD08DAA, 0x31EC740ADD7AFF91, 0x8161A718176A184A,
   0xDBE181D8D0E5C52B, 0x49929AE4DA8B1799, 0x6CABD009E6E4DCE8, 0x8F7A4E333F3A97F1,
   0x74D867C25951BF6A, 0xAE0E250B558BFDCA, 0x4F1931F36EBAB821, 0x5FEC8DB5E1687C57,
   0xE69AD14B1B055C71, 0x2E535D3E3C0C5EF9, 0xB4E3268E8C49F35C, 0x301111F404CB6258,
   0xEC55DC09542E830A, 0x19431829E2BB554A, 0xBAEA513C649D0CD1, 0x4FF08F05A93C2020,
   0xE664715C962A4770, 0xFA59A074891F71BD, 0x2024B238FA52726B, 0x5F29CD37142C018F,
   0x8413E240C67A612F, 0x7C5BDF6D698B7B34, 0xED020AC88B0B374E, 0xE2E3BBB09C86910E,
   0xBBCE56BA90227383, 0x71D65E13E64D76C7, 0x26CFBEBE56FB3FDC, 0x1B1423F4BB8615B5,
   0xFAAC04E6BC06E8F6, 0x22E5F09D69C21E27, 0xD1429B6A310367C9, 0x1032AEE8BDFD3EE3,
   0xDA61742513188BDC, 0xF0295C34E5CB5AA9, 0x354E4FBCF2888991, 0x2698273D70A7D4BC,
   0xA5ACFE416CA78F3F, 0x41BDFB87385F6286, 0xC8F2172889DC049D, 0x75C2539ECA396891,
   0x71E32E9D34296E9A, 0x8E1A1EDDD03E9B97, 0x523B403289253271, 0x7804A81AD886B0F0,
   0xF68CC9FBD45FB1F1, 0xA61A1D6E6CAD9507, 0x74687BAF84F0D311, 0x71E7213E08900FD1,
   0x9B136F6EB443496F, 0x31633099C7DFACFB, 0x9DC391DD447145D6, 0x383FCD8B725A7202,
   0x609C86CBD486E2B4, 0x2CA08529630A904C, 0xFBEED2589E0552CE, 0x6F1FFD9738CEDFB0,
   0x644CD32EB5B34D45, 0x1FAD4A270E8C95BA, 0xB84E42C574D69AA1, 0x162DFD73EB4BD05E,
   0xBDCB708778E7BFB3, 0x85C397265323985E, 0x90E791DED73E8B37, 0x36D96B5DC6158E10,
   0xFABB131D5C4B0277, 0xCC828E4B695EADAF, 0xD03A5DFBC58C18F6, 0xAB79469E87684D80,
   0xBF2EB2E75D920B61, 0xEDE5C2F1D1E4FAF5, 0xDE79056D6EFA5DC5, 0x9F384D2025191A72,
   0x49D8140A2033543E, 0x1F461BA3270FC5A2, 0x7B707470718200D7, 0x8192095FE0D31277,
   0x974A731847E79A44, 0x17429F4C61BC226D, 0x870565EE42FA345B, 0x1B8518C3C8888896,
   0xA1194829C09551BA, 0x0282FB9C03FEF34B, 0xD3A88AEE5CFE2441, 0xF3E9A97B5E3B0642,
   0xCED1A9E3DFABFF09, 0x1B1185D7A7450EAC, 0x821527BCBE52389D, 0x3DDFD59212A4BAFC,
   0x0FB28320763BA4EC, 0x7CE5EB3CBF6A5BD8, 0x561A9344090DFDDE, 0xC4181701BD033B7C,
   0x911FFA3C6CE2C34E, 0x94212D6EA7F7BF02, 0x603B2DCB0E568378, 0x99A12EEBE2BCDC5E,
   0x210CD3DB76375814, 0xE38E66174B200129, 0x710C10A95C33C598, 0x686FD8E49D6BFA26,
   0xDDABCBD6C55789F2, 0xD0CDE854B133DD2B, 0x8E9804EECE2580A5, 0xFF1787BF2B3D93F3,
   0xB7C47AB43282EB0E, 0x4007139C26433C0A, 0x1769CDC58ECFF188, 0xFB83488E1DBE017C,
   0xF380FD81C33FAA2F, 0x38305873296F6184, 0x9C6F9C231DDDB1D2, 0x02BCA65EAF643879,
   0x7ADA1C2CAF27873B, 0x8CB5E5F1191DDFA7, 0x1D656E5EBE1284BC, 0xDB442EADD930D576,
   0x5DB59EB7B6FC1219, 0x2B360D282C374F70, 0x3E25AFE454CCB453, 0x42E9E82637B4C42A,
   0x6C798603D338F16D, 0xF0AC90922A67E6E5, 0x66400D614E4E7D45, 0x603DF90C43A59ED1,
   0x700B32A25FBC4F31, 0x2BF145F9A2DF0DED, 0x598341B8E5BAAED7, 0xE216C92D8A923C77,
   0xABBE7EEB4E1406AD, 0x8EFA883663081AAD, 0x2FE475A0AA1B1F2B, 0xC50C26E9D6434FE3,
   0xA1B14E1392DA8371, 0xFCAA1435CD997637, 0x6F1E8A4343FCE297, 0xB3056861F4C13C9B,
   0x0C4C3EF4A6AEF23E, 0xC6AFC0781E06F19B, 0xB7CB17DB3E35048E, 0x294B9C3C709BDCC9,
   0x12884BB24C99BAE3, 0xC0892507778EB6C8, 0xA9F9AC3D73571CE9, 0xA6FCDCDB16F8E9B9,
   0x827A2EA7A972C416, 0x234162BCB8E6B0AB, 0x60C4615E074CEB3C, 0xFCC2F6F98FF2205C,
   0x01EFC22D836E1131, 0x1EFDF5F1D566A9E7, 0x34FC26F29FDAFCED, 0xC3FE7039F96F2837,
   0x618928D77314C5BA, 0x4542431D7D6B66DA, 0x619AB0F1C1478C91, 0xCF8E0154747BBB04,
   0x8B69E17E574FA20E, 0x97379DF2C4A5563B, 0xE5FD87D5E450F3F7, 0x722FAB141A82158F,
   0x91006CE16DBE9D6D, 0xB911DB9E2D9D96BC, 0x843CE779E25AF2E6, 0x93E68485A0F2F5A7,
   0x1951609E9EBFA389, 0xDBD8F1BAB49616CD, 0xB166C1D7F77A6CC3, 0xEF41D4E103C9E8DC,
   0x6EBBFC6E00CB108B, 0x9D4AB0A9E52D02B0, 0x51C4E2D10AAB6A25, 0xE1F007A22041D52C,
   0x6741520E96986E47, 0x787CA16DA39813BD, 0xF5A05C2C7BB5FA36, 0xA0DE6CB95023D0D0,
   0xDC8B0C2D773B94F8, 0x30FF77C09F9F4657, 0xF0DBEE38AEDF9FBD, 0xA29ECF53AE0C18A3,
   0x42317E2F0F8AFC8E, 0xE71E8E4A347C4196, 0xF54E316D54B71E17, 0x13567B52E148CC9F,
   0x5D01231F3723B3AC, 0x971125066CB0FB27, 0xEC5E31ED934C6659, 0x462564A1F6BCBE39,
   0x15872A14C2039ECE, 0x2ED4DD564222DA09, 0xB00F57F7A3991FB9, 0x1EF3E304098A9526,
   0x43A010A97DFC7DDF, 0xB35DDAE2A1A6E916, 0x7BBED412EFD39D76, 0x67265602D13C43EE,
   0xB96EA9E07157C3DC, 0x5F3BC048EF8956CF, 0xE394477A48676659, 0x224A53BB5D9BF6A3,
   0xE078AA3F87F0D695, 0xF49EEC28360D0037, 0xBD61174DD8ED3292, 0x990A179A79DD6292,
   0x5A95BF9117AA8743, 0xDC26A5EC1E3809C3, 0x89B35F95A6EEEE85, 0x452C5B034019EF95,
   0x4CF80814D2FC3789, 0xCA76E20BA08FCE23, 0x7A5FD567F9EE97DA, 0x1A9469F59DACC381,
   0x71EDEB95A967AEF1, 0xBD1E891DC697AF73, 0x9F9A36546D26B753, 0xB20DED9F2D8DAC2B,
   0x4645C2060E4C586D, 0x277AB86BAEBBF216, 0xADEB784A8D49265F, 0x150B0662D5D16FF0,
   0xE017A1863C4298E9, 0x8202A36A373ED185, 0xF5CCACA23E1C28A2, 0x961025C8929B9EC6,
   0xE14C51F3E961BB27, 0x58B4BB2D6A28D55F, 0x140E9A8C89CF1989, 0xAD3B2A0FFF3E8A05,
   0x0FD3314ACA2D2ABC, 0x5EA69D0672411A0F, 0xC5CEBC9376570BDE, 0x5260ECAFB7F8E654,
   0x132C4BD004B8AEEA, 0x6990974EBC93E3BE, 0x2AC61614ECF6E67E, 0x0C5CFBA18A835F4F,
   0x42178E7DB115A6A4, 0x74CBD51024EC3286, 0xD5B9486F829D3E74, 0xB4F435AA13657BE2,
   0xE9B02024FFA7ACCC, 0xB63045EB566910AC, 0x844213225C058323, 0x2174AE49A0F66FFF,
   0x1A0A45C567776C16, 0x7BDF7A04204FD032, 0xD7CAB2CCF9C7EC6D, 0xDE6F127050DA7448,
   0x3C8B97EF55F20068, 0x4C2AE33A418DB847, 0x296BA8437827C581, 0x28C22DA82EB4358E,
   0xDF87ED0FC51EFFCF, 0xED4B075E42E76C35, 0x58C49E58F3A2A6E9, 0xC42442C54656004C,
   0xA043555776218413, 0x6153232F0FE7AE0E, 0x29E438146F531846, 0x6B536FAE198DE045,
   0x31852498209DB5E1, 0x4338D2F2F4A6389C, 0x69EB81E3FEB92EDE, 0xC6963EBB78C0BFD9,
   0x81A4956E84AAF0B3, 0xEF2A88B8957299C6, 0xC1B7D134B859177C, 0xE198795BC92BC58C,
   0xFE0BFBA419AAAAB2, 0xED42A8A4C3D40879, 0x55418DB3F3413AF7, 0xF78418960E0476F8,
   0x73E48646A90968DC, 0x854CE0C862FFF023, 0x33DFB67A269B80D3, 0xD8F322E79628A23D,
   0xE7651F886D6AC3D7, 0xA905ABB45108F414, 0x53F2169BBBA8EF3A, 0x8B0E4DCD4532A6F1,
   0xAB454CF01B5DF039, 0x6675773E59ED1D04, 0x8A9F5BDC979295DD, 0x768B9E9D6A086166,
   0x8329E0975058020F, 0xA70F988704E84307, 0x677321522DE71338, 0xD37DFDB532DE1963,
   0x88A402513A3355FE, 0x50B15B61BC82CB54, 0xFB23590602679DD5, 0xC60D94BE0D8F6FAC,
   0x7A261F8E57ABDDF8, 0x22D7A322C184FFDA, 0xA0D262538777B1A0, 0x2D99798F3DC2EBFC,
   0xB6EF5C3EDCC1380E, 0x88FF986291091294, 0xCD4FEEF443DEA5B8, 0x27B52DADE8064334,
   0x5DD48AE3BA8B800D, 0x0B71A3C7E131D174, 0xE1E16EA2A07CBA3D, 0x7A8F169DE92A3612,
   0x76FA3DC67BD7A82C, 0x3A879CBE1F90EE4D, 0xCE84AA7A0FA63CC8, 0x54D3B5F62054B6FB,
   0xCC47FF3AB972AB68, 0x3EC1685D3A71E9CD, 0x8CD3964319CB00A8, 0x67A4A0C39002FF7A,
   0x05FDF67E12478554, 0x90CA45C428284214, 0x54546593C017B5AF, 0x19D62742B8E02FE4,
   0x1A9727E8A3B4428E, 0x64FCE899D7BF3212, 0xF101DADCAAB173B3, 0x1BEAB867AB2BC115,
   0x011A27807B5C75E8, 0x22D424D6C45AFEC7, 0x92A81D85E8AFCF25, 0xC19F4E1864B88855,
   0x04BE9A0C17C39630, 0x81E8536509F9D23C, 0x8176C5AD5A2828B0, 0xB894643D8C2B53F0,
   0xBAD8E00BB2089667, 0x3601653F2661BE2E, 0xA65F4D8CA813A440, 0x3FFED9910C8718D6,
   0x5B74FE58E6376A7A, 0x4452BA8C7974BB03, 0x1880E61287382DBD, 0x2D226BB3DA5C653C,
   0xCB92AD0E6066FBF4, 0x7294062DF9E7FCC1, 0xA8DA52CA0ED2B2DE, 0x8171946F263F76B8,
   0x029182F625072D06, 0xDD0832970F54BA01, 0x81A4E399A77D43ED, 0x4F2882B4D0516CD9,
   0x5923EE8F76115A92, 0x0D2C2CC70AE2E7E5, 0x08C8C6FFE1F6935E, 0xA765CEEA0F340A63,
   0x1B271730BBCF20E4, 0x7D0DA1DF62322606, 0xE61E1BAA37D93702, 0xCFC086EEB7AB24AA,
   0x75B5071B94D9C458, 0xFBAE2FDDD6832107, 0x09E537B7474EF357, 0xC73D657C6F6C4B14,
   0xAEC985857AE7B1E5, 0x2558FC4117B7BAD0, 0x635074F5E1430EA5, 0xCA4F29CA8B729DFC,
   0x862595D7A31B6F78, 0x68ECC40A1930C346, 0xD6BD68A7F68C247A, 0xC2870C0D4089B0FA,
   0xAACDCD00D867A572, 0x15BEF73E141906DB, 0x626DBEFCA322E597, 0xEEA608130CF12C59,
   0x1268ADE7F50B8328, 0xBFA163A77EBACD4E, 0xF4174F4CDA764A18, 0x8A19DF77E1685284,
   0x6B977A6AEB7BA17D, 0xDF41AE5BB3FB4016, 0x7EFD6FB2C55D91F3, 0x79CDEDB23616379B,
   0x8317E6EE6E433897, 0xEC4EFC230612524B, 0xAFF97A5022743F01, 0x3DC881697EB3D2CC,
   0x0DDC6D635095FA92, 0xD22A87529655308E, 0x4EB55FBE0FC23983, 0xD7A90678CB0931C9,
   0x6584C08BCEB2C283, 0x0A0098D7FF8DA33C, 0x0F58802286A6A455, 0x1156A4912B6B0E3D,
   0xD9CCCDE2CEDF84CA, 0x9CEADF820C134EC7, 0x4E68003B2150230D, 0x721B2E2C13386F4C,
   0xBBFD097BB68BF71E, 0xC76F69A65D8755A1, 0x4D318B07E63B7D42, 0x6D61634DCA62C456,
   0x9F004A9C9638C4C0, 0xC9F388153D5D6FDA, 0x63157BBC89F4B55C, 0xB51F71554752C9DD
};
static uint64_t bias_1[64] = {
   0xFFFFE29300006633, 0xFFFFAF71FFFF809F, 0xFFFFFCB1FFFFBC0D, 0xFFFFBF6D0000199B,
   0xFFFFA034000023F3, 0xFFFFFB4EFFFFB997, 0x0000341D00003415, 0xFFFFC90300005ABE,
   0x00005C3A000004CC, 0x00005B07FFFF95D6, 0xFFFFA40BFFFF95D1, 0x0000179EFFFFEE76,
   0xFFFFBD21FFFFAFCD, 0xFFFF9EF700001351, 0x00003E7E00003161, 0xFFFF9B680000344A,
   0x00003E30FFFFB6CB, 0x000035B8FFFFDE4E, 0x000064F0000053DE, 0x0000475CFFFFDBF9,
   0x00004711FFFFFC99, 0x00002ED5FFFF8C5F, 0xFFFFD8D0FFFFE925, 0x00007457FFFFED56,
   0xFFFFB70700006331, 0x00000985FFFFD7A8, 0xFFFFBBAB00005944, 0x0000573F00006378,
   0x0000229BFFFF949C, 0x0000127800001E8A, 0xFFFF966AFFFFCA40, 0x00005088FFFFFE92,
   0xFFFF96A10000779A, 0xFFFF95C3000011AB, 0xFFFFBF51FFFFFA63, 0xFFFFE33200003B8E,
   0xFFFFE4520000288C, 0x000020C5FFFF88B0, 0x00003E3700006A6F, 0x00007AB2000057CB,
   0x0000299000002DA4, 0x000021D6FFFFFEB9, 0x0000079C000018D9, 0x00002F3B000073A0,
   0x00002ED8FFFFE7DA, 0xFFFFDBB600007A77, 0xFFFF98AE00007389, 0xFFFFCED4FFFFF016,
   0x000000EAFFFFAF94, 0xFFFFF464FFFFBC0C, 0x00004E17000063A0, 0x0000020AFFFFDF6B,
   0xFFFFEDC300005710, 0x00005318000031AE, 0xFFFF96C8FFFFA65D, 0xFFFFBF53FFFFB214,
   0xFFFF96D200001BD2, 0xFFFF85240000768B, 0x0000339000006B29, 0xFFFFD5F5FFFFC464,
   0xFFFFBB660000552F, 0xFFFFE3FFFFFFCA1B, 0xFFFF8562FFFFD628, 0xFFFF85EF00004D2E
};
static uint64_t zero_point_1 = 0x00000000FFFFF691;
static uint64_t scaling_factor_1[512] = {
   0x000000000000009E, 0x0000000000000000, 0x0000000000000000, 0x0000000000000000,
   0x0000000000006900, 0x0000000000000000, 0x0000000000000000, 0x0000000000000000,
   0x0000000000A20000, 0x0000000000000000, 0x0000000000000000, 0x0000000000000000,
   0x00000000CD000000, 0x0000000000000000, 0x0000000000000000, 0x0000000000000000,
   0x0000009700000000, 0x0000000000000000, 0x0000000000000000, 0x0000000000000000,
   0x0000630000000000, 0x0000000000000000, 0x0000000000000000, 0x0000000000000000,
   0x005E000000000000, 0x0000000000000000, 0x0000000000000000, 0x0000000000000000,
   0xE200000000000000, 0x0000000000000000, 0x0000000000000000, 0x0000000000000000,
   0x0000000000000000, 0x00000000000000E0, 0x0000000000000000, 0x0000000000000000,
   0x0000000000000000, 0x0000000000005100, 0x0000000000000000, 0x0000000000000000,
   0x0000000000000000, 0x0000000000C50000, 0x0000000000000000, 0x0000000000000000,
   0x0000000000000000, 0x00000000EB000000, 0x0000000000000000, 0x0000000000000000,
   0x0000000000000000, 0x0000001400000000, 0x0000000000000000, 0x0000000000000000,
   0x0000000000000000, 0x0000AC0000000000, 0x0000000000000000, 0x0000000000000000,
   0x0000000000000000, 0x005E000000000000, 0x0000000000000000, 0x0000000000000000,
   0x0000000000000000, 0x6800000000000000, 0x0000000000000000, 0x0000000000000000,
   0x0000000000000000, 0x0000000000000000, 0x00000000000000D3, 0x0000000000000000,
   0x0000000000000000, 0x0000000000000000, 0x000000000000BC00, 0x0000000000000000,
   0x0000000000000000, 0x0000000000000000, 0x0000000000000000, 0x0000000000000000,
   0x0000000000000000, 0x0000000000000000, 0x000000007B000000, 0x0000000000000000,
   0x0000000000000000, 0x0000000000000000, 0x0000002300000000, 0x0000000000000000,
   0x0000000000000000, 0x0000000000000000, 0x0000670000000000, 0x0000000000000000,
   0x0000000000000000, 0x0000000000000000, 0x000D000000000000, 0x0000000000000000,
   0x0000000000000000, 0x0000000000000000, 0xC600000000000000, 0x0000000000000000,
   0x0000000000000000, 0x0000000000000000, 0x0000000000000000, 0x0000000000000095,
   0x0000000000000000, 0x0000000000000000, 0x0000000000000000, 0x000000000000E400,
   0x0000000000000000, 0x0000000000000000, 0x0000000000000000, 0x0000000000DB0000,
   0x0000000000000000, 0x0000000000000000, 0x0000000000000000, 0x00000000E8000000,
   0x0000000000000000, 0x0000000000000000, 0x0000000000000000, 0x0000004F00000000,
   0x0000000000000000, 0x0000000000000000, 0x0000000000000000, 0x00007F0000000000,
   0x0000000000000000, 0x0000000000000000, 0x0000000000000000, 0x00C4000000000000,
   0x0000000000000000, 0x0000000000000000, 0x0000000000000000, 0x0C00000000000000,
   0x0000000000000034, 0x0000000000000000, 0x0000000000000000, 0x0000000000000000,
   0x0000000000009F00, 0x0000000000000000, 0x0000000000000000, 0x0000000000000000,
   0x00000000002F0000, 0x0000000000000000, 0x0000000000000000, 0x0000000000000000,
   0x00000000D1000000, 0x0000000000000000, 0x0000000000000000, 0x0000000000000000,
   0x0000000800000000, 0x0000000000000000, 0x0000000000000000, 0x0000000000000000,
   0x0000A00000000000, 0x0000000000000000, 0x0000000000000000, 0x0000000000000000,
   0x006A000000000000, 0x0000000000000000, 0x0000000000000000, 0x0000000000000000,
   0xE400000000000000, 0x0000000000000000, 0x0000000000000000, 0x0000000000000000,
   0x0000000000000000, 0x000000000000006A, 0x0000000000000000, 0x0000000000000000,
   0x0000000000000000, 0x0000000000005400, 0x0000000000000000, 0x0000000000000000,
   0x0000000000000000, 0x00000000008D0000, 0x0000000000000000, 0x0000000000000000,
   0x0000000000000000, 0x000000008C000000, 0x0000000000000000, 0x0000000000000000,
   0x0000000000000000, 0x0000006100000000, 0x0000000000000000, 0x0000000000000000,
   0x0000000000000000, 0x00007A0000000000, 0x0000000000000000, 0x0000000000000000,
   0x0000000000000000, 0x00D2000000000000, 0x0000000000000000, 0x0000000000000000,
   0x0000000000000000, 0x6300000000000000, 0x0000000000000000, 0x0000000000000000,
   0x0000000000000000, 0x0000000000000000, 0x00000000000000B4, 0x0000000000000000,
   0x0000000000000000, 0x0000000000000000, 0x0000000000007100, 0x0000000000000000,
   0x0000000000000000, 0x0000000000000000, 0x00000000006A0000, 0x0000000000000000,
   0x0000000000000000, 0x0000000000000000, 0x000000001E000000, 0x0000000000000000,
   0x0000000000000000, 0x0000000000000000, 0x0000006800000000, 0x0000000000000000,
   0x0000000000000000, 0x0000000000000000, 0x0000B00000000000, 0x0000000000000000,
   0x0000000000000000, 0x0000000000000000, 0x00D9000000000000, 0x0000000000000000,
   0x0000000000000000, 0x0000000000000000, 0x8100000000000000, 0x0000000000000000,
   0x0000000000000000, 0x0000000000000000, 0x0000000000000000, 0x000000000000003B,
   0x0000000000000000, 0x0000000000000000, 0x0000000000000000, 0x0000000000003B00,
   0x0000000000000000, 0x0000000000000000, 0x0000000000000000, 0x0000000000B80000,
   0x0000000000000000, 0x0000000000000000, 0x0000000000000000, 0x000000000F000000,
   0x0000000000000000, 0x0000000000000000, 0x0000000000000000, 0x0000003E00000000,
   0x0000000000000000, 0x0000000000000000, 0x0000000000000000, 0x0000450000000000,
   0x0000000000000000, 0x0000000000000000, 0x0000000000000000, 0x0036000000000000,
   0x0000000000000000, 0x0000000000000000, 0x0000000000000000, 0x8800000000000000,
   0x0000000000000072, 0x0000000000000000, 0x0000000000000000, 0x0000000000000000,
   0x0000000000000400, 0x0000000000000000, 0x0000000000000000, 0x0000000000000000,
   0x00000000005F0000, 0x0000000000000000, 0x0000000000000000, 0x0000000000000000,
   0x0000000048000000, 0x0000000000000000, 0x0000000000000000, 0x0000000000000000,
   0x0000005100000000, 0x0000000000000000, 0x0000000000000000, 0x0000000000000000,
   0x0000480000000000, 0x0000000000000000, 0x0000000000000000, 0x0000000000000000,
   0x00A8000000000000, 0x0000000000000000, 0x0000000000000000, 0x0000000000000000,
   0xA500000000000000, 0x0000000000000000, 0x0000000000000000, 0x0000000000000000,
   0x0000000000000000, 0x00000000000000CC, 0x0000000000000000, 0x0000000000000000,
   0x0000000000000000, 0x000000000000A800, 0x0000000000000000, 0x0000000000000000,
   0x0000000000000000, 0x0000000000DE0000, 0x0000000000000000, 0x0000000000000000,
   0x0000000000000000, 0x00000000CA000000, 0x0000000000000000, 0x0000000000000000,
   0x0000000000000000, 0x0000007500000000, 0x0000000000000000, 0x0000000000000000,
   0x0000000000000000, 0x0000E70000000000, 0x0000000000000000, 0x0000000000000000,
   0x0000000000000000, 0x0078000000000000, 0x0000000000000000, 0x0000000000000000,
   0x0000000000000000, 0x3500000000000000, 0x0000000000000000, 0x0000000000000000,
   0x0000000000000000, 0x0000000000000000, 0x00000000000000CF, 0x0000000000000000,
   0x0000000000000000, 0x0000000000000000, 0x0000000000000100, 0x0000000000000000,
   0x0000000000000000, 0x0000000000000000, 0x0000000000BB0000, 0x0000000000000000,
   0x0000000000000000, 0x0000000000000000, 0x00000000B7000000, 0x0000000000000000,
   0x0000000000000000, 0x0000000000000000, 0x000000F300000000, 0x0000000000000000,
   0x0000000000000000, 0x0000000000000000, 0x0000510000000000, 0x0000000000000000,
   0x0000000000000000, 0x0000000000000000, 0x00E1000000000000, 0x0000000000000000,
   0x0000000000000000, 0x0000000000000000, 0xD500000000000000, 0x0000000000000000,
   0x0000000000000000, 0x0000000000000000, 0x0000000000000000, 0x0000000000000087,
   0x0000000000000000, 0x0000000000000000, 0x0000000000000000, 0x000000000000D000,
   0x0000000000000000, 0x0000000000000000, 0x0000000000000000, 0x0000000000A50000,
   0x0000000000000000, 0x0000000000000000, 0x0000000000000000, 0x00000000E0000000,
   0x0000000000000000, 0x0000000000000000, 0x0000000000000000, 0x000000C700000000,
   0x0000000000000000, 0x0000000000000000, 0x0000000000000000, 0x00003A0000000000,
   0x0000000000000000, 0x0000000000000000, 0x0000000000000000, 0x0037000000000000,
   0x0000000000000000, 0x0000000000000000, 0x0000000000000000, 0x6300000000000000,
   0x000000000000006C, 0x0000000000000000, 0x0000000000000000, 0x0000000000000000,
   0x000000000000D600, 0x0000000000000000, 0x0000000000000000, 0x0000000000000000,
   0x0000000000CB0000, 0x0000000000000000, 0x0000000000000000, 0x0000000000000000,
   0x000000006C000000, 0x0000000000000000, 0x0000000000000000, 0x0000000000000000,
   0x0000002A00000000, 0x0000000000000000, 0x0000000000000000, 0x0000000000000000,
   0x0000850000000000, 0x0000000000000000, 0x0000000000000000, 0x0000000000000000,
   0x00AD000000000000, 0x0000000000000000, 0x0000000000000000, 0x0000000000000000,
   0x5600000000000000, 0x0000000000000000, 0x0000000000000000, 0x0000000000000000,
   0x0000000000000000, 0x00000000000000A7, 0x0000000000000000, 0x0000000000000000,
   0x0000000000000000, 0x0000000000000700, 0x0000000000000000, 0x0000000000000000,
   0x0000000000000000, 0x0000000000C10000, 0x0000000000000000, 0x0000000000000000,
   0x0000000000000000, 0x00000000AC000000, 0x0000000000000000, 0x0000000000000000,
   0x0000000000000000, 0x000000A400000000, 0x0000000000000000, 0x0000000000000000,
   0x0000000000000000, 0x0000950000000000, 0x0000000000000000, 0x0000000000000000,
   0x0000000000000000, 0x009B000000000000, 0x0000000000000000, 0x0000000000000000,
   0x0000000000000000, 0xEC00000000000000, 0x0000000000000000, 0x0000000000000000,
   0x0000000000000000, 0x0000000000000000, 0x0000000000000046, 0x0000000000000000,
   0x0000000000000000, 0x0000000000000000, 0x0000000000003300, 0x0000000000000000,
   0x0000000000000000, 0x0000000000000000, 0x0000000000090000, 0x0000000000000000,
   0x0000000000000000, 0x0000000000000000, 0x00000000A1000000, 0x0000000000000000,
   0x0000000000000000, 0x0000000000000000, 0x000000E000000000, 0x0000000000000000,
   0x0000000000000000, 0x0000000000000000, 0x0000980000000000, 0x0000000000000000,
   0x0000000000000000, 0x0000000000000000, 0x004B000000000000, 0x0000000000000000,
   0x0000000000000000, 0x0000000000000000, 0x8800000000000000, 0x0000000000000000,
   0x0000000000000000, 0x0000000000000000, 0x0000000000000000, 0x000000000000004F,
   0x0000000000000000, 0x0000000000000000, 0x0000000000000000, 0x0000000000000D00,
   0x0000000000000000, 0x0000000000000000, 0x0000000000000000, 0x0000000000650000,
   0x0000000000000000, 0x0000000000000000, 0x0000000000000000, 0x00000000D7000000,
   0x0000000000000000, 0x0000000000000000, 0x0000000000000000, 0x0000004600000000,
   0x0000000000000000, 0x0000000000000000, 0x0000000000000000, 0x0000F80000000000,
   0x0000000000000000, 0x0000000000000000, 0x0000000000000000, 0x0022000000000000,
   0x0000000000000000, 0x0000000000000000, 0x0000000000000000, 0x0700000000000000
};
static uint64_t weight_2[512] = {
   0xA0AFF7A326515D86, 0x3C32DC823D943991, 0x79FE59C5D04C749B, 0x8DDC632B25933F6B,
   0x2E24C29BE5A7CC14, 0xF75873B536143967, 0xE314C454C0B24535, 0x7B95586E946365A1,
   0x628B82006AC9132C, 0xB82A37468CDEA7B8, 0xF55244E8B08E5F9D, 0x0948B2A8B59C0C90,
   0xAB0BB65AB4048F06, 0xB499105FAEC40074, 0xAD30A32EC9556288, 0x24BD6CEE8C834272,
   0x9769BB4CE5E18CCE, 0x5556180F81D6DCC7, 0xE3351A9FD0847227, 0x097267110D9F561B,
   0x18888BC222E964FC, 0xEE3CF72102FEACDF, 0x90D40A4AE5E7FF08, 0x3567736F8B076B08,
   0x97C4C453F318DA0C, 0x2A3910B29C820ADE, 0x63602DF918F64E70, 0x3B8A2A85F9762762,
   0x65E54CBBD9045FCC, 0xD343A62FC02DF3E8, 0x1BF4F510F6CF56CF, 0x2EC4EA2B8F46A4CC,
   0xE7B8C5A950455EAE, 0x39A12BAEDB05F328, 0x9A5BEC574B795C8A, 0x3413CAFD75A0A48F,
   0x3A930D762984D62E, 0x5DE170482E45A996, 0x21DEA34A684E213E, 0x05AE06F5249E4566,
   0x5FEFFDED06C37DBC, 0x74D584F65F84FECF, 0xA0D700F218CB96C5, 0x393DB058B6456C20,
   0x73B9A74A8604198F, 0xFD24D06FB8D99C4A, 0x8F1296988BDFAACE, 0xAA11EE024F80D836,
   0x63293A59F4CC3F3A, 0x060CE2434C25FED1, 0xEE61965C6379E44E, 0x482C7251B258587A,
   0xCA0C85481F868AD1, 0x6054EBDB87668891, 0x581BACEB5648FF30, 0x47CA08ED7747463A,
   0x55B584ACACF5BFB5, 0x03A67E74BAE5632C, 0x4266C232E7CD0B62, 0x68354BEF1C9051E0,
   0xE16F78881CBAED21, 0x1B1AF1D461BFA1EA, 0xCEF9B04C4CFB6CF9, 0x568FC914FB3FD804,
   0x592B703F2BF9CB19, 0xD9158B22838E4E64, 0x087DFED4E775B136, 0x04BDB902F671D6E1,
   0xDF075EE7B74982AE, 0x312625A3537D472A, 0x0E25836DCA0BE3B1, 0x9B0F306F9F76F77C,
   0x684664419593DA5A, 0xBAB4F92690DD1DC0, 0x6B394234D9B93216, 0xE91E266C46B2A29D,
   0x9965E5AD38A48B29, 0x0958613C981FD600, 0xACD02DF97A488435, 0x8AC637FDD2148BDD,
   0x347BCD214CA51FD9, 0xE7067A59474F254E, 0x6E688BB4C3224D6D, 0x1BA9749BDEE3DE53,
   0x6A240F474A2C134D, 0x04B04FD2C0C209A1, 0xDAB37208FE2ED8DE, 0x0057D6DB6CE56A60,
   0xA63B3918DD35CADE, 0xCAAE096F26B8F8D1, 0xB9688F05E01E6360, 0x0C713023522D35AD,
   0x2670302AAB998F6C, 0x68846EBCBFF1A535, 0x97B3FFCF5ED38281, 0x394ABA7139E82104,
   0x56B58BE80877F21A, 0xAB31EAE70620A2DF, 0x471ACDCAE92575BB, 0x388E42562E610717,
   0x0EBCDA31CA5FBD6C, 0x19947276D4F900A7, 0xE94476D976AD2D7B, 0x7DA51E735D059304,
   0xCAD56D3C2EBDC6D2, 0x18514247D93D4E15, 0xFA490B7E7ECDF52C, 0x870CAEA829AD0B6C,
   0x865DF5E62C5EEE4D, 0x135D0F15F8828BBD, 0x84DC5DAC1685AAEE, 0xAD2BFBB82A87F28F,
   0xEC6A654E816CB50D, 0xEC202C22A2EB8C4B, 0xEE6FA392DE505779, 0xE9CC7E3799CA7BAF,
   0x268A067838B14B8B, 0xB61BE4D053DE5A11, 0x26C5283B2D6BBD72, 0x398F9B60EE28756B,
   0x67E22274B2C3B2E9, 0xFAAFFF0CE47B7310, 0xF7BFE89B4A377E2C, 0xBCD973799E3A36B3,
   0xDB780545A93D7BAC, 0xD40AB89895CB114D, 0x76D8F5FE21E4C2F1, 0x1C926BDC7991EF5E,
   0xF9B6AD9417561773, 0x63F5B64563E59235, 0xF81983D567511FD1, 0x6583832175057BAE,
   0x03F254D382EBB02A, 0x8EBA3BECE39C4A67, 0xEDE1DA6378FC68EC, 0xF2EA324405907116,
   0xE074E5ACB7AA754B, 0x594173718BCF05FE, 0x9476771043217AB0, 0xCC0CE40EA287415F,
   0xA0875A2EC9E9A9E3, 0x0DDF4569A95DFA96, 0x316ECFDCA7633764, 0xDBC0BBE676DDBFD1,
   0x26D4A6F5CE5D2A23, 0x26303A4886FAD02A, 0x29EED7754D0ED3A9, 0x09D7D543F96A7110,
   0x3720D55A6E58DC45, 0x99B0081AE2ECABFF, 0xD0D8C9555DC92483, 0xE6C6E4484F4EA382,
   0x6D9B8DE0029F5BDB, 0xBA0A0F290DCFBC1B, 0x22E5282A4E84CC7E, 0xB85976578B4ADF54,
   0xD2D8767B4E5EC829, 0x5999C9C1AD0A93E7, 0x3A1629470342CEB6, 0x98EC96DA4E6BA32F,
   0xED3FEAE4C07AEB95, 0x87F72BF8BE6DBC1A, 0xFB9B1D42E79B11DC, 0x2915C60C6587CFEB,
   0x9ED6B089809D842C, 0xC974DD8866418A63, 0xE5581E77A7DF6535, 0x6BE6E21A7DF6CC76,
   0x7EC5757274F05AA1, 0x8BFFCE1FFE238800, 0x4251EADC03C122D8, 0xDFA9CE70FBC651C6,
   0xE4F8A353222CEFC2, 0x419702F497B90913, 0x6B9D7E2288D926DD, 0x73F08EF08E451EE2,
   0x133ECEDAF1416DE6, 0xDBECCA4DC60ACFD9, 0x491C51911FBD7C90, 0xC0C120F37E90322C,
   0x10E7A753E26693DC, 0xDB4B4CDA1267C234, 0x289879C3EAE584D1, 0xBD0A48F158664B40,
   0xB18CBCB966787780, 0x6B9137EC601AE019, 0x9A8F4EF379F0F513, 0x0106F589878BFFD6,
   0xB8094E4A567EB1BA, 0x8977D0E840F4A4A8, 0x89B807F9BA0B3704, 0xAC5BD5107451E440,
   0x5D6429E1A56E7D95, 0xC8D0066C2D767B77, 0x73D1CA5CB912E728, 0x1465B244EEEE76C3,
   0xB7EF45720A389A5C, 0x141400333210B68B, 0xCB04C6D8E2EDF042, 0xF242BFA999D30A6A,
   0xECC8D1291256736F, 0x46DAE1023BA45184, 0x766463DDAEEE9BB8, 0x1972CA79C667DC27,
   0x0464FE32A7580918, 0x4DEBE07114E6249E, 0x964746880343DB91, 0xD3F971A3E9523A2B,
   0x71FFDE450E630EA0, 0xECB4E56AF30BE43A, 0x0717D4D05CB4D70C, 0xEFAF261AA8C1DB6F,
   0xEFD461EC12CB3225, 0xAD5A63C2E61883F0, 0x6DB5826B1B88E6B6, 0x5A92B7ED7822532D,
   0xF9912AFBC3DDC6D1, 0x627057C18ECB1477, 0x000145092461A62F, 0xEEE84FBA42F54237,
   0x9A4F153D9798D5E5, 0x3E557830A753252D, 0x23D58AF83C8CB2B7, 0x5C311073613A8CBC,
   0x9745E8CE97469E37, 0x832717AF69DAC4AA, 0xA1A64E6FC253A5CC, 0x3060B95F380482C1,
   0x340A829956F61AE9, 0xF3C8D09C778B1F0C, 0xECEC5B4196CABFDA, 0xDE891EC2C46ED62B,
   0x34A03B607DE4CE13, 0x28437A5FBD0B7410, 0x7C808043B808B212, 0x3BEA248E7817A6FD,
   0xC50543BAB58F33E2, 0xB88D7C05E4DC3715, 0x27799B2609399E6F, 0xE6B963D906B3D76A,
   0xD4CD5F7725B49D36, 0x53CD4FADBC8215CC, 0xFFBA7C1682EF7E50, 0xD580E01632617A61,
   0x433A36D7AE8DC9E1, 0xCB7703AF5BB06DA7, 0x72B9EBCCA5CFE133, 0x23293DF57E3BD2CF,
   0x283D6C6A6E248031, 0x0C59B2E744EAFBCC, 0xB9ECB1EDD642D2D7, 0x9DCD0C61B11C9047,
   0xE4D3C60A3D65E26E, 0xEF36EEDA9851EAB3, 0x325198F51AC038E4, 0xDC38AEFEC04DC5FC,
   0xD16FDE757DFDA097, 0x9CAE66650DFAD6C3, 0x5FCE634E03F7F562, 0xF16E8F7C9F2EA6E7,
   0xB294954196E977B8, 0x5FE1B5E428F05443, 0xCCC74717B48A140A, 0xF4618F29B8BA70A6,
   0x9A2F7694952EBAE1, 0x7A7B290BE4A79EEA, 0xCA389F35168C4940, 0x5EF821AA55113A85,
   0x01B07D4757FA7EC4, 0x53A35015F2A28804, 0x618D5F73444E0AC4, 0xDB2A558A5CB08920,
   0x198B90C36CE978FB, 0x3372D6AF19EFC3DC, 0x182155B4EECB6BD9, 0x14A1C356FA366400,
   0xE50FE2ABE442CEAB, 0xC0475E8A709ABEFC, 0x5835DF143E030B77, 0xA3AC8E8AB202C626,
   0x68787004D0DE09AF, 0xD7F265F3FE6E54A9, 0xE7A8355C415357F4, 0xDFAEA1CF8E32FCD0,
   0xFA99A56D26365E9C, 0x804D33DC45F6B387, 0x169FBDE36E6B46CC, 0x26A088B5F9315181,
   0xFD5938017C3A1E00, 0xD0D8B779B85C1746, 0x7A8766CD21C6A90E, 0x5C8DC982284E1CB2,
   0x0CA4E5C8C8B17BC9, 0x85B62072C5D8E8D4, 0xB32AC785D3D56A11, 0x82A8C608747A0025,
   0xBE9EEE0DD05BC686, 0xCB434422B033FF5E, 0x2E2B4AC7EF3AA0E4, 0x36EFF1E8EC0F6480,
   0xC00C1F103F72F408, 0x42CF5EAFD0FF8A50, 0x8EFB05A559E1E91B, 0x9F0135CCE3A93C2F,
   0xFFE3A17BDF49C446, 0x1168959D433C8404, 0xD2849C21F0E2E597, 0xF348BCE0AA86F393,
   0x679F570D22564807, 0xB94CAC90CD826CC9, 0x8D1D2CE7A034A52B, 0x3C5761922178E245,
   0x0398763276F08A12, 0xBA0F99DA57BCA7B7, 0xD200C7CB1C34F2ED, 0xF83449930551AFCF,
   0x300847C3600B625B, 0xD20AED1427770F1F, 0xC840ED79748DBAA9, 0x199ACF8F454401BA,
   0x8105FBF52DCF376C, 0x328C9ED503675C56, 0x87BF76A53C6FAD63, 0xB56236631F3D4C4D,
   0x0A4B735462120DFE, 0x93FABA8A4ECFE504, 0x8549619CFEAAA138, 0x8E134F8C5CD85D04,
   0xC1432DD95CDEA8C3, 0xEC162081692BCFCE, 0x7DF7D189E681CAC0, 0xC3F25180CC955F94,
   0xCF6400E3D1B82CB6, 0x2A8692A573C74B73, 0x3F37D0974C4DC09E, 0x71426FEF21F61F77,
   0xDF8F5946AEF112DD, 0xD2D27BDEAB7655B4, 0x34512044AC326775, 0x114FBFDC5173839C,
   0x9CFBA92EBFC72C0C, 0x80F0AF591F608DC5, 0xCCFD8591D48B0C02, 0x69CAE4833EB4C922,
   0xFD9AB181E704CE08, 0x8510E9E2C00BDADB, 0xCCE06FDB4B051F8D, 0xAAB8EEB76284D504,
   0x9BCD6043171B3B12, 0x18F51B82DCC4E70F, 0xFCBABFC483F791FF, 0xF5BDDB99CCA04824,
   0x4FEF95FB40B1C9A7, 0xC092D5DD4D68EE49, 0x58442DF3D2552FF9, 0xE54192F55FFAD59B,
   0xCAAEB415AF5D8EFC, 0xE143E1269E26DF39, 0x340C7BE719A07147, 0x8E35486C34D324C8,
   0xBECE3B4549062B66, 0xA68D9D3E3056215D, 0x6D12476FD856B271, 0x17B54987E0FFEB97,
   0x127719615D5C40BD, 0xDC9C7D08D9139973, 0x59D1D3C35797C7A1, 0x4A497077BBBEC63C,
   0xF2B86AAB51E8EE18, 0x58598270E5077A79, 0x161CF3BA56BD91C7, 0x58907AA300490449,
   0xC2859AE6A9C1AD6A, 0xF5C40CBB1EB978FE, 0xE5BD7A1C751B9D81, 0x87440EB47228E7D2,
   0x2D59B0173CD13C66, 0x71281589755334DD, 0x4E5AB4D6B730ECB7, 0x6C4B058BD630D835,
   0x1B7A9274EEC6E549, 0x33891B806902C327, 0xFDD804CCD8E1B410, 0x204F3DFBB7A2FB28,
   0x96FB21F51681C43E, 0xA1AAC90C3297C917, 0x7290953015D82528, 0x07772AA459E01977,
   0x346DA618E9FD361A, 0xD9F21CAC8FF05A93, 0x10F8656C6F856E93, 0x9BBF5A91FED89373,
   0x113335EEAD8AA8CC, 0xDA7CEB329F481397, 0x27F2D3F5C0711219, 0x84E9EE97130D621F,
   0xF4F51D0D2ABFC126, 0x5ECBA124C17DB4C4, 0x8BBFC234AB3B1583, 0xBA064EDF0D740577,
   0x908F8910CC859AC0, 0x653160F3E0B0C82D, 0xA9F2AF2C8B5DDF34, 0x9A326815E37DC51C,
   0xE610E30617753AD0, 0x80497BBF6054BAC5, 0x38F11C8004C98119, 0xDDA4C0AC101D435D,
   0x9C24199D788AD272, 0x225989F277B7589B, 0x5ABCCE1C3C73B4A7, 0x0D1215B60C3DBA71,
   0x8B62AF70E68B323C, 0x5F3BFA81356B1462, 0xEC879545350477B3, 0xFD62E1208DEBE316,
   0x9B5098DF21C91D33, 0xFC219B8C6C576C2E, 0x706BF020227540E8, 0xBA24C3E23711AC83,
   0x4BC3B06F2FB48615, 0xC35C230A3F5C08C0, 0xA48700700D80D2F3, 0xA7AD23B8F11E0975,
   0x7DBC6C3949ACC8E6, 0xC4B2E91E8488AD56, 0xA6DF9F3DC95B1FB0, 0x9DA02FB674F9852C,
   0x952A102ABD94257A, 0xA1C1F1FFFF13C99A, 0xEEC8B53EA9479A82, 0x9736CD22D339B231,
   0x3F169D7A635A4673, 0x6A9F5CFE951445D4, 0xEEEF9B1B4E237518, 0x03C2BA6D8E5CFFF1,
   0xFAEFB58EDC51B7F2, 0x1A39B360C803C289, 0x8B1282D1DF19F0B9, 0x2B83DB1666F4778B,
   0x8090AA1D802F90BA, 0x31E4A823BF09F80C, 0xEC8F31BD75A8292B, 0xBA756C364CA85333,
   0xECA8A697E5EE27B4, 0x002A74B383E1F027, 0x4E84EE6021601651, 0xD9F5333D9C755F8C,
   0x870D13830454AE69, 0xDBA06A60BF1516BE, 0x848CD5EDB663D778, 0x933F49AAC5D310C4,
   0x69C2D3A1BFE0932F, 0xDA58A84A908139A7, 0xEC3D5331F5FDA0BC, 0xB7A04FBD3B14EB42,
   0x185BC4201BD245B9, 0x18C5868F2CC1D1CA, 0xDFC806DD9446B1D1, 0xD5C14576731465AF,
   0x620D85D15627E609, 0xE29E6AFE4E9AE6A5, 0xFED69423522F9192, 0xC80629BE6E469D3A,
   0x49E939770BD4BACC, 0xE53FA902B3C52E2D, 0x03FC83E51D650749, 0xC05C83763EADFBC0,
   0x7C57C2DA3C68A7F7, 0xCA1FF78705FD2E6D, 0x45CFE16D91060232, 0xEDF0DA50DF81C169,
   0xB44A297C6B37DCC8, 0x4C3ADEEA151EF105, 0xD5E7C1A609509FD8, 0x5DFDCF3BC45315F0,
   0x6ACECBE0DED22B9B, 0x5C9DEAA465B5E635, 0x8876C7D12A1DD208, 0x4911CC3A4912B2B7,
   0xE9CD0B81F4CF7BD4, 0x5F2CCEB921D7613C, 0x23D078FABF1691EA, 0x55E922653419943B,
   0xFF5A4227EDF7C779, 0x0877EEF1F1CA2923, 0xA47616EA26B97C7B, 0x4833E5CE6F3096A4,
   0xEBDD9E9190E238DB, 0x0085C0BE53A2DFE1, 0x0A487CA9CA591E15, 0x3819CD6E39F12434,
   0x83B3FBB44C851C9C, 0xF01799FC55CD91DB, 0x0EBCE8DA2006002C, 0xF3B5F8B253EA8EE1,
   0x9FC387BFE8D7FD38, 0x8C4EB544FB5B6DD7, 0xE3B6C7729C009A7B, 0xB34D36040C824332,
   0xF6718271AB25E860, 0x5D00E82520F82739, 0xFCA56C0D86E5C21E, 0x936F9C24B5D4A854,
   0x420404B4E31CA994, 0x0A4949D90770928B, 0xC89471C93BDBAF06, 0xF9463FAC40712A8A,
   0x0AEC38F67B426136, 0x76D3531439AE50EA, 0xC3A2F2BABED22FE4, 0xB0C44ECB53439CC5
};
static uint64_t bias_2[16] = {
   0x000000C300007480, 0xFFFFADBBFFFF888B, 0xFFFFE9370000091A, 0xFFFF8E16FFFFD2E9,
   0x0000611400007698, 0x00006D3E0000003C, 0xFFFFB833FFFFE779, 0xFFFF9898FFFF8F57,
   0x00003536FFFFF6EC, 0xFFFF8A1F0000372D, 0x00002F5F00006236, 0xFFFFE62300003D84,
   0x000017E90000726D, 0xFFFFBD69FFFF84B0, 0xFFFFCB2600007139, 0xFFFFF860FFFFAB4F
};
static uint64_t zero_point_2 = 0x00000000FFFFFB70;
static uint64_t scaling_factor_2[128] = {
   0x00000000000000D4, 0x0000000000000000, 0x0000000000000000, 0x0000000000000000,
   0x000000000000E400, 0x0000000000000000, 0x0000000000000000, 0x0000000000000000,
   0x0000000000410000, 0x0000000000000000, 0x0000000000000000, 0x0000000000000000,
   0x000000001A000000, 0x0000000000000000, 0x0000000000000000, 0x0000000000000000,
   0x0000003C00000000, 0x0000000000000000, 0x0000000000000000, 0x0000000000000000,
   0x00009B0000000000, 0x0000000000000000, 0x0000000000000000, 0x0000000000000000,
   0x004F000000000000, 0x0000000000000000, 0x0000000000000000, 0x0000000000000000,
   0xE700000000000000, 0x0000000000000000, 0x0000000000000000, 0x0000000000000000,
   0x0000000000000000, 0x0000000000000088, 0x0000000000000000, 0x0000000000000000,
   0x0000000000000000, 0x0000000000000000, 0x0000000000000000, 0x0000000000000000,
   0x0000000000000000, 0x00000000008A0000, 0x0000000000000000, 0x0000000000000000,
   0x0000000000000000, 0x0000000064000000, 0x0000000000000000, 0x0000000000000000,
   0x0000000000000000, 0x0000000500000000, 0x0000000000000000, 0x0000000000000000,
   0x0000000000000000, 0x0000440000000000, 0x0000000000000000, 0x0000000000000000,
   0x0000000000000000, 0x00E0000000000000, 0x0000000000000000, 0x0000000000000000,
   0x0000000000000000, 0x1300000000000000, 0x0000000000000000, 0x0000000000000000,
   0x0000000000000000, 0x0000000000000000, 0x00000000000000F2, 0x0000000000000000,
   0x0000000000000000, 0x0000000000000000, 0x000000000000BB00, 0x0000000000000000,
   0x0000000000000000, 0x0000000000000000, 0x0000000000A90000, 0x0000000000000000,
   0x0000000000000000, 0x0000000000000000, 0x000000008D000000, 0x0000000000000000,
   0x0000000000000000, 0x0000000000000000, 0x0000006C00000000, 0x0000000000000000,
   0x0000000000000000, 0x0000000000000000, 0x0000E80000000000, 0x0000000000000000,
   0x0000000000000000, 0x0000000000000000, 0x0030000000000000, 0x0000000000000000,
   0x0000000000000000, 0x0000000000000000, 0xD400000000000000, 0x0000000000000000,
   0x0000000000000000, 0x0000000000000000, 0x0000000000000000, 0x0000000000000022,
   0x0000000000000000, 0x0000000000000000, 0x0000000000000000, 0x0000000000004A00,
   0x0000000000000000, 0x0000000000000000, 0x0000000000000000, 0x0000000000CD0000,
   0x0000000000000000, 0x0000000000000000, 0x0000000000000000, 0x0000000080000000,
   0x0000000000000000, 0x0000000000000000, 0x0000000000000000, 0x0000002600000000,
   0x0000000000000000, 0x0000000000000000, 0x0000000000000000, 0x0000DC0000000000,
   0x0000000000000000, 0x0000000000000000, 0x0000000000000000, 0x0050000000000000,
   0x0000000000000000, 0x0000000000000000, 0x0000000000000000, 0x5900000000000000
};
static uint64_t output_feature_2_itr0[32] = {
    0xE7ADFDEE, 0xFFFFFFEE, 0xF7FBF5EE, 0xEFF9F1FF,
    0x11040201, 0x09100611, 0x10060801, 0xEEB9F7FE,
    0x11540A00, 0x08500801, 0xF6AFFFFE, 0x10020700,
    0x00000900, 0x01440710, 0x01140801, 0x11420E11,
    0x11560F11, 0x11560F11, 0x11560F11, 0x11560F11,
    0x11560F11, 0x11560F11, 0x11560F11, 0x11560F11,
    0x11560F11, 0x11560F11, 0x11560F11, 0x11560F11,
    0x11560F11, 0x11560F11, 0x11560F11, 0x11560F11
};

static uint64_t instr[145] = {
    0x000008,
    0x000612,
    0x800433,
    0x0001f0,
    0x0001f0,
    0x002008,
    0x000632,
    0x840433,
    0x0001f0,
    0x0001f0,
    0x004008,
    0x000652,
    0x880433,
    0x0001f0,
    0x0001f0,
    0x006008,
    0x000672,
    0x8c0433,
    0x0001f0,
    0x0001f0,
    0x0001f0,
    0x801e82,
    0x000133,
    0x0001f0,
    0x0001f0,
    0x841ea2,
    0x040133,
    0x0001f0,
    0x0001f0,
    0x881ec2,
    0x080133,
    0x0001f0,
    0x0001f0,
    0x8c1ee2,
    0x0c0133,
    0x0001f0,
    0x0001f0,
    0x0001f0,
    0x0001f0,
    0x008008,
    0x00a616,
    0x000017,
    0x0001f0,
    0x0001f0,
    0x04a636,
    0x000017,
    0x0001f0,
    0x0001f0,
    0x08a656,
    0x000017,
    0x0001f0,
    0x0001f0,
    0x0ca676,
    0x000637,
    0x0001f0,
    0x0001f0,
    0x00a008,
    0x00a696,
    0x000017,
    0x0001f0,
    0x0001f0,
    0x04a6b6,
    0x000017,
    0x0001f0,
    0x0001f0,
    0x08a6d6,
    0x000017,
    0x0001f0,
    0x0001f0,
    0x0ca6f6,
    0x040637,
    0x0001f0,
    0x0001f0,
    0x00c008,
    0x00a716,
    0x000017,
    0x0001f0,
    0x0001f0,
    0x04a736,
    0x000017,
    0x0001f0,
    0x0001f0,
    0x08a756,
    0x000017,
    0x0001f0,
    0x0001f0,
    0x0ca776,
    0x080637,
    0x0001f0,
    0x0001f0,
    0x00e008,
    0x00a796,
    0x000017,
    0x0001f0,
    0x0001f0,
    0x04a7b6,
    0x000017,
    0x0001f0,
    0x0001f0,
    0x08a7d6,
    0x000017,
    0x0001f0,
    0x0001f0,
    0x0ca7f6,
    0x0c0637,
    0x0001f0,
    0x0001f0,
    0x0001f0,
    0x001e0a,
    0x00033b,
    0x0001f0,
    0x0001f0,
    0x041e2a,
    0x04033b,
    0x0001f0,
    0x0001f0,
    0x081e4a,
    0x08033b,
    0x0001f0,
    0x0001f0,
    0x0c1e6a,
    0x0c033b,
    0x0001f0,
    0x0001f0,
    0x0001f0,
    0x0001f0,
    0x010008,
    0x00861e,
    0x00001f,
    0x0001f0,
    0x0001f0,
    0x04863e,
    0x00001f,
    0x0001f0,
    0x0001f0,
    0x08865e,
    0x00001f,
    0x0001f0,
    0x0001f0,
    0x0c867e,
    0x01003f,
    0x0001f0,
    0x0001f0,
    0x0001f0,
    0x000000
};

void NPU_load() {

    // normal C code
    volatile uint64_t* se_base = (uint64_t*)0x70000000;
    volatile uint64_t* weight_base = se_base;
    volatile uint64_t* CIM_base = se_base + 0x10000;
    volatile uint64_t* feature_base = se_base + 0x12000;
    volatile uint64_t* instr_base = se_base + 0x14000;
    volatile uint64_t* CSR_base = se_base + 0x18000;
    volatile uint64_t* start_addr = CSR_base;
    volatile uint32_t* PLL_base = (uint32_t*)0x24000000;

    for (uint64_t k = 0; k < 4; k++) {
        for (uint64_t i = 0; i < 32; i++) {
            for (uint64_t j = 0; j < 4; j++) {
                *(CIM_base + k * 4 + i * 64 + j) = weight_0[k * 128 + i * 4 + j];
            }
        }
    }

    for (uint64_t l = 0; l < 4; l++) {
        for (uint64_t k = 0; k < 4; k++) {
            for (uint64_t i = 0; i < 32; i++) {
                for (uint64_t j = 0; j < 4; j++) {
                    *(CIM_base + 2048 + l * 16 + k * 4 + i * 64 + j) = weight_1[l * 512 + k * 128 + i * 4 + j];
                }
            }
        }
    }

    for (uint64_t k = 0; k < 4; k++) {
        for (uint64_t i = 0; i < 32; i++) {
            for (uint64_t j = 0; j < 4; j++) {
                *(CIM_base + 6144 + k * 4 + i * 64 + j) = weight_2[k * 128 + i * 4 + j];
            }
        }
    }

    for (uint64_t k = 0; k < 4; k++) {
        for (uint64_t i = 0; i < 32; i++) {
            for (uint64_t j = 0; j < 4; j++) {
                *(CIM_base + k * 4 + i * 64 + j + 16) = scaling_factor_0[k * 128 + i * 4 + j];
            }
        }
    }

    for (uint64_t k = 0; k < 4; k++) {
        for (uint64_t i = 0; i < 32; i++) {
            for (uint64_t j = 0; j < 4; j++) {
                *(CIM_base + 4096 + k * 4 + i * 64 + j) = scaling_factor_1[k * 128 + i * 4 + j];
            }
        }
    }

    for (uint64_t i = 0; i < 32; i++) {
        for (uint64_t j = 0; j < 4; j++) {
            *(CIM_base + 6144 + i * 64 + j + 16) = scaling_factor_2[i * 4 + j];
        }
    }

    for (uint64_t i = 0; i < 4; i++) {
        for (uint64_t j = 0; j < 16; j++) {
            *(weight_base + i * 32 + j) = bias_0[i * 16 + j];
        }
        *(weight_base + i * 32 + 16) = zero_point_0;
    }

    for (uint64_t i = 0; i < 4; i++) {
        for (uint64_t j = 0; j < 16; j++) {
            *(weight_base + 128 + i * 32 + j) = bias_1[i * 16 + j];
        }
        *(weight_base + 128 + i * 32 + 16) = zero_point_1;
    }

    for (uint64_t j = 0; j < 16; j++) {
        *(weight_base + 256 + j) = bias_2[j];
    }
    *(weight_base + 256 + 16) = zero_point_2;

    for (uint64_t i = 0; i < 145; i++) {
        *(instr_base + i) = instr[i];
    }

    // for(uint64_t i = 0; i < 8; i++) {
    //     *(feature_base + i) = input_feature[i];
    // }//Feature Load by Thermal

    // *start_addr = 0x1;
    // *start_addr = 0x0;
    //Start by Thermal

    return;
}